3D031BDF
3CA5D28D
3C80C309
BB769CAA
3B767B1C
BCBF8B9C
3C46B485
3CD6B442
BD010A57
BCC827B7
3CF9A283
BC9BDC6A
BD58E64B
BDAA57A8
BD9A847B
BC9220FF
3C68CCDE
BCF98527
BBE23290
BD0FC505
BCCF483D
3C4C7D1C
BC2F78FF
BCC19C17
BC9DB878
3CD2BF55
3D024A27
3CE2413E
3D00ECFA
B866AFCD
3C836C9C
3C73D3A2
BD87C958
BD793682
BD46E9FF
BE0D840A
BE1249A1
BE883F2D
BE49A805
3BBA51A0
3C1435AD
BD1C3372
BE7C8798
BE45E786
BE5945B7
BDD0470B
BDC4DDB5
BE14449E
BE23CD57
BDCD3D86
BD3B139D
BD253975
BC4FF64D
BCC32EBE
BC74FD6D
BBB1CC96
3CD5C0FD
BBF4623D
BD7C3505
BD63BEEC
BCCC48AE
BDDE6D59
BE47620F
BE69BE4D
BEDADABA
BEEDFD05
BEFE90BC
BECB2724
BEF17B0F
BF18A02C
BF430D84
BF4CBF0A
BF087AAF
BF554E5D
BF49B941
BF310DAE
BF09FB40
BEDB2314
BEC840E1
BE9F2D80
BE49A6F8
BE2F255F
BD07789A
3C2E8188
BC3749AE
3D0A2FCF
BD6EC072
BD8635A4
BE002D9D
BE49AD43
BECCDFF0
BE9F84EC
BE61975F
BEEC9F0E
BEF03600
BEABF594
BEA283D3
BEA32E38
BEC1BD62
BF10115E
BEFCFF43
BF10A57A
BF1EDF50
BEE5C0DB
BEF94E1A
BF065797
BF143FF7
BE8D3DEA
BD75F80A
BC3AC711
BD6BE597
BAD7BE98
BC5E15CA
BD5FB720
BDE3400C
BDC76295
BE7BF551
BEC67C8D
BEE1E7DA
BEAB3E57
BE9BA259
BE9EB69E
BEB80086
BEBE099A
BE6B7E4E
BE15BD94
BD5FE005
BD0C5005
BDAC447C
BE296D09
BE5DCAD1
BE2E703B
BDFD7E46
BE528C37
BE57D45A
BD82DE01
BE89C2A0
BEB906AB
BE4BCE85
BDD84D34
BC56E04C
BC7893FB
BE2ADA77
BDD08FEB
BEA911CF
BEC48A7A
BE7E0FC3
BE8922FB
BE97EF5B
BEA72713
BE93F1A6
BE3A4ACF
BC519589
3D9430F5
3E0F76E6
3DE5308C
3D9C7150
3DA6A3BE
3D43CD14
BD30A3D7
BD8B33DB
BE087619
BE2AD602
BE882364
BEED742E
BF1E74F3
BEA733A9
BDD42A24
3D0332F0
BDE75148
BE1B8D82
BE8E1A1E
BEC9FF0D
BE24DA90
BE3B7D85
BE70F16F
BEA8EE28
BEB2D01C
BE5975B0
BD84534C
BCF1ED18
3D6F1130
3D9E8FF3
3DF553EF
3E1FAEBC
3E3CBB80
3E3160D9
3E12FC69
3D2D3E92
3DA999DD
BA638A7E
BE52BB66
BF200A6C
BF6FE1EB
BF024F01
BE17924B
BD51611C
BE3A3AD2
BE6557DE
BEE8FE69
BF13BB51
BDDD27C4
BE81105E
BE8496CC
BE8346DC
BE0AB4FA
BD93FE19
3B18B2EA
3A9E55C1
3D885DB7
3D872A7C
3E167126
3E5DC593
3E94675A
3E7A32B1
3E3EF135
3D68815E
3D61858C
3D070DA6
BDCB1E5C
BF267EE9
BF4B3DE2
BF12FE82
BE4A6117
3DF2BC30
BE894FF0
BE961E4F
BEA71B48
BF19C993
BE55FBF8
BE8E8E3F
BE452652
BE570C99
BDDF4A99
BCD9D777
BC55347A
3CED5CFB
BC9057D1
3DC690DE
3E75729B
3E9CC61E
3EA4840E
3E86659D
3E17FAE3
3DA6BF01
3D0902DE
3DF03C8E
3BF251C2
BF1E9C88
BF74CC68
BF1AC227
BE4D8A98
BE248388
BE94C815
BEDB1013
BE94BBE4
BEE9D7DC
BE8C5719
BE3A0903
BE0087CA
BE2FC3F8
BDBE3971
3CF3647C
BD45692B
3C34F616
3D5D0636
3E091CD2
3DEA875D
3E8C523F
3E9EE3D6
3EC05A2D
3E786727
3DDE5EAB
3E197D4A
3E41EEEE
3E09A4DF
BED3F594
BF535419
BF38EB46
BE71A21F
BE256E26
BE87C697
BE881605
BED901D2
BEC57907
BE4D7F0F
BDF5C28F
BD70AC3B
BCE66235
3CECFA6A
BB757F73
BBF85943
3D28869C
3DE6F263
3D2D080B
BD2CD078
3C967A96
3E43F0BB
3EBA745C
3EA8919F
3E95249E
3EA1CAC1
3EA746ED
3E99D430
BDF07315
BF29EF31
BF00FE04
BE300219
BE29BBF1
BDA4FA05
BEC1BA5E
BEE66A55
BEEE75FF
BDACE13F
BC70563F
BC32745C
3BE1F7D7
BC28A82A
3C2D96A7
3CCF9E38
3CFC47E5
BC912DBA
BE782060
BEF8B04B
BEE0F606
BDF214F0
3DD5DDD3
3E7E28ED
3E980CFA
3EA9E94B
3ECF74EF
3ED7824D
3E2B8E08
BEAE1954
BE1DB728
BE505C46
BE0B1C43
BE0B7803
BE99DEAD
BED58F2E
BE8AF4F1
3D207F67
3D654930
3DC9CD3E
3C2FD114
3C85E1C1
3C8AD8A1
3AFF10ED
3CBF2D3C
BE90791C
BF230B6B
BF6B1162
BF484C38
BE986AF4
BDC1C68F
3D5AFAF8
3E36F4BF
3E924181
3EE5753A
3EEA5461
3E836E93
BE1F4949
BE14A127
BE01CFFF
BD8AFAB5
3B1B0EE5
BE6DF549
BEC5AD97
BE1651F4
3E314E7F
3E621251
3E48DAC2
3DC3B795
3E0407CC
3E51B110
3DB7BFA5
BDCB0EA2
BF019210
BF415C64
BF8A17EC
BF582E77
BEC61C15
BE612B1B
BD37AE58
3D24DF48
3E7901D2
3EDB252D
3ECF9831
3E72B628
BE26EDEE
BE50AD04
BE3713AD
BDC65A57
BE04EF03
BE6A6762
BED4C31A
BE2D21BC
3E6096BC
3E5D117B
3E98C21E
3E62F09E
3E72CD7D
3E8DB7AE
3E1E2CDC
BE1D7B20
BF057D28
BF63E74B
BF7DFC09
BF447336
BEB4F93C
BE4DA598
BDABD6E9
3D2AB580
3E5650A4
3EB1F538
3EB36AA5
3E61D218
BE0494D5
BE8CA2BA
BDE2F838
BDBBE8FF
BD16E04C
BE36173C
BEECB03A
BDA04EA5
3E7A6E33
3E64D61B
3EA6A26E
3EA0AC9F
3E96C4A4
3EC40725
3DB8444A
BEAA4D6E
BF450796
BF7D3932
BF76CEBC
BF1E5C3E
BE9E4E27
BDBA3CA7
BBB74DE0
3E031099
3DF1B9B6
3E50E90C
3E9AC365
3E4BEA0C
BE277814
BE8D423E
BDF49386
BDF20FB2
BD9C2870
BE4E0F80
BEE2DFD7
BD1A426C
3E710F52
3E73397E
3E92F273
3E9D88C2
3EAA8BF4
3EAEB52D
3C8D79D1
BF145597
BF78F7EC
BF777AD5
BF492FF5
BEF0BD01
BE601D9F
3B93964A
3D16B442
3DA0A7C6
3D1A3098
3DCC8BCA
3E3BCEC8
3DA8D3AE
BE916B76
BEBB4938
BDBBDA51
3D083CB0
BD98D9B6
BE88F777
BF113554
BD417CA2
3E0D8B61
3E5B6F5D
3E912B80
3E81FE00
3EA026AB
3EAE9EE4
BD4679CC
BF1BC222
BF4FE3F3
BF560B3D
BF07C350
BE932F88
3C1EBE9D
3B011B1E
BC8F7FD0
BC4D4AA1
BB874C90
3E1D6E05
3DEF42FF
3CA89119
BEAD727A
BEA8B19A
3D7302F7
BE0C91D1
BC1E8C48
BEA739D2
BF31AD97
BD0A979E
3D7329C3
3DF8BC5A
3E26E2EB
3E88CE4F
3EA51915
3EC77EC3
3C8E0C9E
BED675DE
BF170ED4
BF054AE4
BEA3C643
BDB1D0C8
BD90A809
BDA14CEC
BDB40358
BDE7E282
BD1D2E0E
3C5755BD
3C04E400
BDAD9BE5
BEEDB0FF
BEA14BBE
BE556755
BCAE514C
3D5CDE5D
BE172C95
BF282880
BD8EB032
3CB18330
3DBF3F96
3DA299D9
3E732160
3EA988F4
3EC9BB8C
3E79E1B1
BCF166E0
BE895BBC
BE8C3569
BE3956C1
BE2A9931
BDD16F44
BDF315D7
BE0FFDE7
BDC5796C
BD461D86
BD06C00E
BDC5718F
BD7FF25E
BEEE2153
BEB3BFD7
BE0BEFD0
3AC564F9
3DD85D74
BE163E8E
BEE5CF03
BCFA8B4C
3D6E696A
3C73ADE2
3D789D6B
3DF870DA
3E82C98E
3ECED6DC
3EAA5A8A
3DC449DC
BD8B6284
BE2329C3
BDE5FE97
BE038540
BDF0D413
BE611490
BE364884
BDE27C7C
3B866A12
BDED43D0
BE3970B5
BE132F88
BEBF5F4E
BD04C597
BDE84838
BD80EB68
BD9CB2D9
BE417D28
BEACCD96
BE379B35
3CCEBBBA
3CBF0132
BB9A3D2E
3D1F81A6
3E4AA25E
3E8ABDA1
3EAB443D
3E009635
3CB82C2C
BCB29C34
BD8F0AE5
BD927807
BE1E2D1F
BE3199BB
BE160B2D
BD5E81CB
BDCBBA13
BE0EA811
BE48DB49
BE0ADEA9
BE321BC1
3D0DC550
3D972D5E
BDA96A27
BDE6594B
BE7B2E9D
BF0DDD2B
BEE6DEB9
BC6F3908
3DC977C9
3D045996
3D43B928
3E1BD7F5
3E4267C7
3E9353B5
3E90A4C2
3E4EDCC2
3DF6249A
3CADE00D
BD7E9A70
BDF552E3
BDF717DF
BDBE1199
BE01244A
BE2A8544
BE60257D
BE1251C2
3A4DC875
BDB4C986
3D1B0FF1
3DC22BBF
BC81797D
BC91819D
BE7B6849
BEC4F28C
BEE93166
BE12A8CA
3AD41312
3CFFA3BA
3CAB649D
3DA30015
3E03C686
3E4F605B
3E8A2425
3E6E13F5
3E306E1A
3BC58EEB
BD63A7DB
BDEAB9B2
BE28F81F
BE29B5E9
BE93C05D
BE78E4B8
BE6862B2
BE1092CD
BE11B64E
BE213448
BE1DE3FC
3B1203A3
BA7A58F7
3C52391D
BE3B08DD
BEA878B8
BE2E614A
BDB43201
BE136C9C
BE21E03F
BE771FBC
BE09906D
BE211FD6
BE687011
BE339219
BE0B0DD8
BE312DFD
BE36AD2E
BE6ED289
BE44F441
BE09FCF4
BE87C73F
BEBA3D71
BEABF855
BE8EF178
BE661E0C
BE90E23B
BD2B4741
BDC9478D
BCDDAAD6
BB983D79
3CEA4873
BCF5AB7E
BD92E947
BE9B81D8
BF18C804
BF160685
BEDCD812
BF4596EA
BF8F7CAA
BF8A4485
BF68EF24
BF6B6955
BF460FE4
BF6FAF75
BF619D99
BF5BB6ED
BF2508A2
BF5DB3AF
BF34EF13
BF15816B
BEC51E32
BE88FF32
BE6B44E5
BE8071E7
BDAA0BA2
BDBDBA0A
3A345AE6
BB20A0F5
3C2F35E3
3CC5D639
BDA1461B
BE98EB03
BEAB2075
BEE085F5
BEE9E83E
BF3CC60D
BF59F3A5
BF63F456
BF74AFA3
BF736BF4
BF6FEC89
BF63911D
BF5A1837
BF551A33
BF2F3D6C
BF4E7211
BF29AB7E
BECE1BD2
BEA2F039
BE5C83ED
BE561672
BDFD944B
BDCD9CF1
3C584D34
3C47863C
BC107D91
BCC64FDB
3CBC44BF
BD039581
BE386A90
BE4995EE
BE85D54E
BE45B531
BE4A3A4B
BE97EB6C
BED5C24C
BF10AC7E
BEE0FB22
BEFE8709
BF07B8F5
BEDD07A7
BED7C1BE
BED62BAE
BEA45C57
BE80027E
BE151F3F
BE36876E
BE26B69E
BE141F64
3D09A77E
3CC78C87
3B37B289
BC78A4C2
