BC7D1138
3C4A46E1
3CF14339
BADAC259
3CF811F5
BBDC11E4
BC1A2C67
BD0C20D5
3C52BB23
3CF4FF86
BC02C6EF
BC55A188
BD36805A
BDE3608D
BD763800
BC9148FE
BCD9E40D
3C84A2FD
3C71FDDF
3C8344C3
BC3C8C0D
3C3456B4
BC8B955F
BBB7B289
3C243782
3CE1D649
BCA8B2A7
BC3295EA
3B4E4EAD
BCB85836
BC1FBA45
BCAB990B
BCC5692B
BDD74688
BE09A49C
BE522468
BE3B2C41
BE975409
BE5C9F30
BEBF340D
BEAB8690
BECA072D
BF09DCD7
BEFD7647
BEFDBF6A
BEEE2DE8
BEAFC676
BEBFD71B
BE8EC658
BE87F195
BE2E718B
BDE0BA1F
BCE02EA9
BC9231C6
BBEBFEC1
3B20902E
3CA8DA7F
3CB25D4A
BD4DAA0D
BDE21294
BE127BB3
BDF323FF
BE8602EB
BECD7DE1
BEA3AB43
BEEF92F3
BF21818C
BF39A123
BF421EE6
BF77F2E5
BF916CB5
BF57D6E9
BEE487DB
BF143DDE
BEAB2C1F
BE4D2674
BEBCCEA3
BEABC255
BE5F7729
BF01ABC1
BEA694CD
BE5380CB
BB437E6F
3CD7689D
3C6E5259
3BBA3012
BD218ACA
BE4B90EB
BE60891A
BE09D7FE
BE7B24A7
BEBA0FD4
BEC1815A
BF178349
BEE222D5
BEED9429
BE118F3F
BE93FB9C
BE6FEBD1
BEA02FD7
BEC8B49E
BECE8B7E
BEC25C3E
BEAB30F9
BEA1001D
BE3C3D25
3B91EA79
BCC6B053
BC229414
3C650C5F
3B2EFB2B
3ACA1CEF
3D09F83C
BDE1F4B2
BE24CD31
BE32480F
BE93D6C7
BEEEF49D
BE9AC1D3
BEB6A8DA
BF033EBC
BEB56430
BE9A03E6
BE4085B2
BE42146A
BE7DD228
BE020E63
3D00C415
3D82949A
3DB9181A
BC01E03F
BCD23F68
3C9D9903
3E6F2346
3EB5D873
3EE423D9
3EC1F05F
3E4CBAF9
3B8ABD5E
BE219C17
BCC41787
BCF24B77
BE410668
BEB49C6F
BF09AA0D
BEF74107
BEEBD89D
BE9C28B3
BE38E326
BE0F7447
BD7DBB17
BD6619DB
BDCC5E2D
BE075CD1
BDF8EB89
BD863BEF
3B884838
3D309E99
3DA204F3
3DCCAF71
3E942D6B
3E78116F
3EE053E3
3EF64F12
3EDC0746
3E8FC654
3E297BB7
3D1754B0
BC9F03D1
BE055193
BDEBE6A3
BED6D5AE
BF029DB6
BEFFC71D
BEA93B9F
BE652B4E
BDF65237
BD45729B
BBD4F590
3D0DA09D
BCB37436
3C8359BC
BD05D851
BDC52B4E
BE014728
BD8C9082
3D460675
3DB6DB0E
3E154DA5
3E06D4C3
3EB26395
3F09C3F0
3F2FCEEA
3F14A383
3ED5816B
3DBA0BE5
BCBA1901
BE66EB92
BE3CBD12
BF124C1F
BF3F0404
BEFACABC
BEB0403A
BE2F7B18
BCC371DA
3D7914F5
3E222D0E
3E0B7889
3D719F80
BCC2ACB8
BDE16BDB
BE39D40F
BD95B574
BD3B341E
3D2833C6
3DA1144D
3E37C0B1
3E6FFFBD
3EAC4ED7
3F163055
3F606717
3F4D9F4D
3ED5CDF7
3E21A36E
BD9759EF
BE97B481
BECF65FE
BF28AC08
BF555D3E
BED7292C
BE913E3E
BDCE18AD
3DBC91D1
3E17296F
3E0647BB
3E557710
3E1257C9
BD50E022
BE58A3B5
BE858080
BE591EA8
BE1F14DB
3C2AFBC2
3D0B4289
3E410907
3EA2CA79
3EE9259A
3F4E73B4
3F87425F
3F83CB9B
3F0FB16C
3DF23BBC
BE38A937
BEB3E0BD
BF1AB895
BF31AAD6
BEFD60C8
BE92F0E1
BDB6F4BF
3D3686A5
3E528523
3E889D8C
3E5AB474
3EB8D0EE
3E80A04D
3D85E02F
BDB44A1F
BE9263B7
BEABAFD9
BE8B66B6
BE74D1E9
BE123316
3D459967
3E9E2EB2
3F0D95DD
3F676199
3F9CAC97
3F95E069
3F240863
3E4F5409
BE081062
BECA5DF2
BF3C6402
BF422CBA
BE940810
BE0E2329
3DC6B7AA
3E71B930
3E80DE6E
3EC45B6C
3EC3B667
3F05A826
3EF14F27
3EC56990
3DB1CC10
BE1A7CE1
BEAE2329
BEFAAF14
BF07CC5C
BF15DDD3
BF0F7154
BECC0BFE
BE698916
3E4A2EC3
3F2D3198
3F7196FB
3EFB6FE3
3DE30660
BE401605
BE9588A0
BEE4C144
BF226613
BE2ABC51
3DACD8DC
3E88E347
3E94024B
3E9FE9FB
3E9AFCAD
3EAD5FFE
3F02CDF2
3F02ADE6
3ED24053
3D8C3654
BE65CC42
BEACEA29
BF019AD8
BF23BEDB
BF8656B4
BFCA7265
BFEAED67
BFE2BB1B
BFAFCA75
BF3CDC12
3EDF924B
3EAAED14
3D6B0319
BDFCB46C
BE36F47B
BEA23F46
BE8EFFC1
BDF6DA88
3E8353D6
3E9DAB5C
3E91FF71
3E4EB4A6
3E45421C
3E97CFC4
3EE0AA22
3EF38583
3E96B980
3C991BC5
BE7CD291
BECE1006
BEB474DA
BE8CAEEA
BEAFA67A
BF1BC116
BF9F7647
BFE806EA
BFE23865
BFB58538
BEEE6128
BC31AB08
BE3944AA
BDAB441C
BE5C4B4D
BECF68E0
BDA6362A
BDB70EF5
3E90259E
3E06130A
3E03D295
3D870DA6
3DEF5558
3E8CA4B1
3ED1973E
3EA61D00
3E6292C5
BC004D98
BE7CFE9B
BEB94574
BE9B7931
BE106035
3D972474
BC555608
BEAFDC16
BF6BE9C9
BFAF8A6E
BFA030A1
BEFB8887
BEACFC40
BE59F6EC
3E076FF4
BE2BF26F
BE93686A
BEA39D3D
BD7AE148
3C2CD5B7
BE2868BA
BDBF0132
3C45F395
3E36A4CA
3EA27D03
3E75E397
3E746A1A
3D2ED784
BDB84A94
BE50AFA3
BE57B289
BE9AC98E
BDD054AC
BB22877F
3DFE6363
BD9B1184
BEAA1C8A
BF1E39D6
BF435D57
BECB1290
BE9CD5FA
BDEA3726
3DC540CC
BDB12EC7
BEAEC9E2
BDD656EF
BE58CA3E
BEC191DE
BED52BF5
BE9EB5D4
BDE25E9A
3E185EC4
3E33FD93
3E17C45D
3DE09FE8
BDA0B2C8
BE5BCD36
BEA267C7
BE8B5D68
BE619B0B
BD6AA7DF
BDBA6D6A
3BD4FDF4
BDC8D866
BDF25786
BE48915C
BE61E8A3
BEADDD09
BEAB354C
BE0DCB58
BE0024F6
BE026528
BEAC23B8
3D215337
BD70A3D7
BEFD7BC8
BF0F357E
BF0202A7
BECA9281
BE3E7968
BDA18373
BCDA63FA
BDAE85BA
BE51AC15
BE8B89F8
BE84562E
BE3C50CE
BDE58362
BC4E4A7B
BD81CDE6
BCC213A1
BDEDA76E
BC4EC41E
3DB559B4
3DD61B2A
BEDF90DA
BF069BF1
BE090646
BCA747D8
BC24228A
BEA88CE7
3D922292
3DDCA6CA
BDA36A83
BC455001
BE9AE1EF
BF008FB8
BF047D1C
BF01F278
BEE66688
BEEB7A1C
BECC83CB
BE9A8588
BE09AAE7
3CFF5A53
3D7DD97F
3DB0142F
3CC4FC1E
BCB29A1C
B9BB2BBB
3D8B2639
3E4EAFEE
3E422A6F
BF314C77
BEF1650A
BE66A61A
BD8E64B2
BDADF15A
BE680410
BC993F6C
3E26B485
3D8A4A06
3E9694AB
3D3CB5FE
BE3E0610
BEE8CBB0
BF1584D3
BF1825E1
BEE3499D
BE3933A0
BD3A6ACA
BC922531
3D93A92A
3DC0F451
3D49289E
3CA7AA69
3CF4B839
3D846306
3DFC6973
3E6CA9EF
3E840F88
BF21EF31
BE9FA2F0
BE19A848
BDA17CA2
BDEE9CCB
BDE55D1C
BE81463D
3D28D10F
3E04B620
3EC64A7B
3E94C1CA
3E313511
3C88BB90
BDE7789A
BC8AB2E1
3DAB2E17
3DDA3B15
3D680171
3D2D9381
3D1B9B67
3D85204B
BCDCEE18
BCA2C669
3D0A7D67
3D97AF64
3E60D8CB
3E9DA61E
3E29D3CC
BF0DB8FE
BEC4B902
BE2B024F
3CF95B36
BDC60ED8
BE4518F4
BE801C93
BD73F317
3C9E68A1
3E551D69
3E5AC57E
3E8F6FF4
3E801EAC
3E84FEBD
3E8F6124
3E48405B
3CD9D990
BDC1908E
BDDE8C48
BC19D452
3D03CD14
3C89D6AE
3D2E5CD5
3CEC204F
3E31A501
3EB7405F
3EC22A4E
3DEC5D20
BED2B29E
BE451655
3DAD6020
BD7D0AEE
BDFCDD51
BEB27F3D
BE0B167F
BDAB9ECF
BDF75AFB
BD7EEA21
3D92567A
3E2F9AD0
3E3B4A23
3E417375
3E257796
3D8D8EC9
BC68B3B3
BE015012
BD83F1C7
3914E5D6
3CED4A1B
3D80AD04
3D98EE28
3E3A3E7D
3EC920E2
3EEB32F0
3EBBD6C7
BCAF2735
BE802FF9
BE1DFB50
BDAC58EF
BD4F4730
BE19A1BA
BEF01345
BE96464A
3D53F4AA
BCB9B670
BE254DA5
BDD9085F
BC33D8E0
3E192C49
3E376D98
3E1838C1
3E15D788
3DE87DB3
3D603B3F
3D516A8C
3CC1D085
3D6A6C1A
3E0734B5
3E58B08E
3E8D5172
3E96A077
3ECEDD05
3E90533B
BCAA9F7B
BDCFA15E
BC7D75E2
BDB44029
3D05DB77
3CBB7B6C
BE430404
BE813965
3D095E18
3D2ED56B
BD3C9EED
BDACE033
BD15DE59
3D4944ED
3DAA9F7B
3E125D8D
3E229175
3DE69F06
3E158256
3DE6948A
3D975C07
BC6B6391
BC8446B7
3DCC6152
3E3A4B99
3E48F430
3E2C9689
3E0EF998
3D01B21C
BD4F850E
BD29D0EA
3CBB7B6C
BC90B1FF
3C385A4F
BE364B66
BE0D41FA
BDA03E64
BB93D103
BD0FE261
3C6CA687
BDA4CAD5
3D537B07
B896FEB5
3D6F5A96
3E0CC9A7
3E0D5BEE
3E0FABDA
3D9550CA
BD535EB7
3C839EF1
3A73CB3E
3D6455EB
3CC26139
BD7112FD
3D96030C
3E0B61FE
3E06D762
BE5CAF71
BE2503B8
BBD002E2
BD09246C
BCA37692
BDCAED9A
3D91F1D0
3CC6D1E1
BE8074A7
BE152370
BD26490A
BDDFF79D
3C85C033
3C6B7458
3D534374
3DCE0FC3
3E17D0F2
3D8181E0
3D48EAC0
3D39BBAE
3C884A51
BE0C3DAB
BE767770
BE88023A
BDF6848C
3DBED528
3E3475A3
3E222B39
BE1186DB
BD8322AF
3CA54824
BCD85BE2
BC25D6BF
BB13B7D8
BD0794EA
BE361177
BEE40E5A
BF1B95D5
BF3998D0
BF2EC9D1
BEF7993D
BF12B496
BEC1CF57
BE9EE86C
BE98E001
BF1350E3
BE89C3F0
BE277FAE
BE1D6990
BE768A50
BE9235B5
BEB12A52
BE60B88D
BE373797
BE0BA301
BDFBF8BA
BD4ADEEC
BCA39820
3CEA0770
BD0C36DB
3B2E74F3
BC4A70D2
BCB47410
BE05C7CE
BE53EDD9
BE97266C
BEB08180
BEC1333C
BF07A11B
BE35DC83
BE44840E
BE633440
BEB1F2BB
BF623A6D
BF76DB94
BF740086
BF44E582
BF0556D2
BEB7DBF5
BEA94035
BE2E1826
BDE3C7D6
BE1623D1
BCA11A97
3C9D8C6D
BCD206C8
BC8B75EA
