37388CA4
BACB295F
BC4E6C09
BCC38B05
3C23F898
3CD9EE89
3D084513
BC40CA60
BAF25A25
BC6AD0C4
3C4C4AC7
BBFB97BB
BDB119CE
BD9C7E6B
BD539FBA
BD635C5B
BBA47ED0
BD121EE6
3C1E7B81
BC88893B
3AD7E026
3C5D7668
3C784CAD
BB523D4F
BCAAAE29
3C16FA83
BCCC63F1
BCE7FD3F
BCF8D0CC
BC68C47A
3B346BAD
BD0DEB10
BD302F73
BD130596
BD8204F3
BE173861
BE3476B0
BE9DE460
BE89B542
BEDAB4B7
BEAD33D3
BE885250
BEC90F73
BE95E2EF
BEB19F3C
BE896B33
BDED50EC
BDD0D7BF
BDB54328
BE2D6C72
BE0E9D0F
BD2C0E7C
3CEFDC9C
BCF926C8
3CCF5904
3CF5F6FD
BCF7A0B6
BCCAEA74
BC48C0CF
BD92F6E8
BD8DD1E5
BDC3CAFB
BE03B85F
BE9D9AFA
BED4B146
BF0B990B
BEDA5EBB
BEBAE07E
BEF7DBF5
BEFB7D41
BF0A46F1
BF5388DB
BF80F816
BF5AF944
BF397ACC
BF3F6684
BF18C62E
BEC1F2FE
BE831D2E
BEA58559
BEA2849D
BE45B63D
BC4E28ED
BC979182
3CE0DCBA
BCBDD767
BDC2AE4B
BE1D59D5
BDA2680A
3DD52D23
BD02EFD4
BD2F6513
BD611A97
BD8F5B1D
BDAB5AA7
BC4A7D67
3DED0CC3
3DFC3D68
3E5888B5
3E00639D
3D8C7DA2
3DF41FA7
3DFF090F
BBE2F380
BDB1E29B
BE9370AC
BE9E7A31
BEC3B42D
BE70B34E
BE0A83B2
BCF327AA
BCEE58A3
BB65D5B2
3DE8E608
BBD03D9B
3DDEA67F
3E3DC8B8
3E733A04
3E82CD3A
3E700ABF
3E446B27
3E40B674
3E168987
3E1D6E05
3E109353
3DD1697F
3E0789E7
3D95C316
BD3CF701
BDE0D456
BC1D0204
BDC42203
BE9892EF
BEBF863C
BEAF266C
BF3FAA04
BEF8997C
BE762457
BE325AAB
BE07064F
BCB62E90
BCB07F24
BD9A261C
3E44F65A
3E9C4370
3E9EA78B
3ECA79BC
3E92E9EE
3E555715
3E2A9197
3E63150E
3E3A2E7F
3DF1337F
3D928B6E
BD063498
3CEE04C0
3CF6B3BC
BE118762
BE411D36
BE51DB87
BE445804
BECFA13C
BF0B56FC
BF38E1A4
BF500DC3
BEFDBCA9
BE4C10D8
BE1B7521
3983126F
3DD184C2
BD489A02
3E90151A
3EC098D4
3ED41206
3ECB356E
3E4100E7
3E3417CA
3E094C01
3E57B9E0
3E5670A0
3E31A8EF
3E213016
3DDB8D3F
3DC8DDA5
3E2A619E
3DB0624E
3CB1DB44
BDD6861F
BE0DE721
BE86E8F3
BEE5E892
BF21028A
BF8F69C2
BF20F3DC
BE9A1EE6
BE2F4D38
BDA99956
3D06E7E6
BE547304
3DEE9468
3EC317F0
3E88B32D
3E2C8E26
3D251B0D
3D0C5868
3DB1A976
3BF67B1C
3DFD6C72
3DF1E29B
3E0E24BC
3E03BC4D
3E0D19DF
3E192253
3DE4AF0C
3D8F062D
3DE938DE
3D0F861A
BDAAADA3
BEA000EB
BF20B2A7
BFA03151
BF1C9E45
BE9EA077
BE80D003
BD9524C0
BE64C7F3
BEA8D75A
BCC45458
3EA0196E
3E6628CC
3D866A98
BC8E94EE
BC9BCFD5
BE0D64D8
BDD260F6
BE1EA24D
BDE5CA2A
BDC45CBC
BB75C28F
3DF393AB
3E0B3073
3DE48F11
3E025AEE
3E248F11
3E000820
3DD49F0E
BDA1DA7B
BEF1094A
BFA7312B
BF658213
BF05F71F
BE861F9F
BE273605
BE82B1D5
BE26C3FC
3DFC621B
3E9A3CEA
3E3319C6
3E1FB374
3D039BCC
BE3B3AEF
BE90C522
BEDD7881
BF0C2774
BEB82FF9
BE360ED8
3DC3C212
3E30C3D2
3E3F02C5
3E0810A5
3DA77EE5
3E106141
3E76CF42
3E288B11
BB4BE1EB
BEB09FE8
BF8F13D7
BF37AB86
BF0EF640
BE2510D4
BE295465
BE9ECAAC
BE36088D
3E3E88DF
3E59A565
3DEC5FC0
3D859967
BE3B61FE
BED8F473
BF185879
BF3054CE
BF22DD37
BEB48B65
3DA6F9BA
3E72C626
3E96E88E
3EA21533
3E33F0BB
3E1EC52A
3E0FFA3C
3E1D2568
3DA68555
BE07B9E0
BEE68F2A
BF4E2C45
BEB838E3
BEFB92E2
BE07F0AA
BE1588A0
BE849689
BE03C969
3E0B81B6
3DA45804
BE773D9F
BED93986
BF05E5E2
BF17A648
BF288CE7
BF266602
BEA6C28B
BC4B4289
3E8170D6
3EBD1C3B
3EC46994
3EB77271
3E5BBFD7
3E3D9620
3DFBF056
BBD70E6F
BE9DF959
BF1519CE
BF367286
BF2A7A42
BEA20EA6
BE769A91
BE24BBA1
BDDDEF85
BE80A633
BE82C0A5
3D81B3AF
BDBD26B7
BED3495A
BF11DD1A
BF16EEB7
BF0BBE66
BEFA467C
BE9F2E49
BD6134CE
3E38DE6E
3E9C7FDC
3EC70260
3EBB2789
3EB35009
3E68CF7D
3DC3BF72
BD2B7671
BE95E248
BF24DAE4
BF557EFE
BF733FA7
BF2E6341
BD85DFA8
BD9E9963
BD7FC009
BE039A7C
BE5AAE29
BEE36DA8
BCF8DB49
BE17D912
BE950C1C
BEE12360
BEF29BD0
BECE70A0
BEAD948E
BE63C686
3D2EBD4D
3EB0969A
3E86605F
3E629952
3E3F9980
3E5CF206
3E1867AE
3D14F7A9
BDD0FD7E
BE7E5B85
BED20AFA
BF0F583A
BF1AFD87
BF3556D2
BEA8B674
BE513059
BDBBFF04
BE1B05FB
3DAC0618
3A97E996
3D896788
BD895AF3
BE8EE3F8
BEDA0D99
BEB81366
BE9B1CA8
BE7177A7
BDF16A8C
3DF590C1
3EB04FD3
3E156B44
3D3CC3A0
3C900608
3D1A8BD2
BC7E2A3D
BC3341E1
3CAB2E17
3C28826B
BD6B7BAF
BDF13A50
BE340A6C
BEB04966
BEEC5847
BE53A10A
BDFDCF89
BE0ECB32
3DDE718B
3DEC97D9
3E6086BE
3D766C6E
BE3F3D7D
BE87C43B
BEAD0353
BE9713F0
BE96E8B0
BE0656EF
3E1E8EE7
3E4EB702
3D8176DE
BD3ADAFD
BE11565C
BDFE4F76
BD279AAE
3D6CD8DC
3DC40BFE
3E2452C6
3DE6C1A0
3E412F4D
3DD62B6B
BD757A35
BEF59770
BE68CC9A
BE106FAC
BD8D86EC
3E04AE86
3E8112DC
3EC9E6CD
3E2ACEAB
BD833051
BE7F30E8
BEAAB55F
BEE66A98
BED391D5
BEA703D1
BE40F40E
BD02D7B6
BE082A13
BE822E5E
BE9932B5
BDF96074
3C8CA1CF
3E345E92
3E6F3DC0
3E40E0A8
3E8B076C
3EB677D5
3E868DDA
3D495183
BF36BB99
BEB45910
BE18EBCC
3C8489D2
3DE2E903
3E8D79AF
3EF12DBA
3E97E32A
3CB03E21
BE11C044
BE75D52C
BEFA57EB
BF4A9C13
BF5C5016
BF45BDA5
BF2498F6
BF1A5DC0
BF0C72C1
BEA9A954
BD0F3450
3E043244
3E43558A
3E6FA58F
3E430A0B
3E9C397A
3EDDA294
3E8CC708
BE705DD9
BF54DAC2
BEEB1487
BE2909AF
BE0995AB
3BCBF2B2
3E9AF428
3F119B1B
3EF8A3F9
3E68982D
3D67913F
BD9CD5FA
BE7E2479
BF2E876E
BF5D8C8F
BF5C40D1
BF7F9757
BF70FCB5
BF1DC0BA
BE725F20
3DFF6988
3E6FE8EE
3E7C9D9D
3E28CF7D
3E134ACB
3E9F2431
3EC68167
3DAADABA
BF364895
BF41C769
BED0A372
BE6E3C53
BD9077CD
3CA8E4FC
3E7C1095
3F0CF441
3EF07161
3EA84B1B
3E43C5BD
3CF51EFB
BDA8C8AC
BE8B4331
BEB0AB50
BEDD63ED
BED0F345
BEE75AB8
BEC9D606
BDDC10D8
3E0E3433
3E6E924F
3E91DE05
3E0B0293
3DD9BFDF
3E54EEBF
3DE4F54D
BE43B689
BF52AB26
BF3B92C0
BEC05836
BE3E3971
BCA5E56D
3E1BB1F2
3EAD9BA2
3F09FD05
3F05D0A6
3EB515CF
3E4BC3C6
3D5209EE
3D4A82A5
BCAEFD44
BDA16D6E
BDA0FCB5
BE060D45
BE08A6DB
BE1067CF
BD3D9CAE
3DA7BE55
3E0EE6B8
3E5E1694
3D9CA7D6
3DF20536
3E0148BB
BE0487FD
BEB9E8A3
BF459A74
BF1C9CD4
BEA10881
BDAC2C5E
BDA86B59
3DD0025C
3E94D22D
3EF95422
3EFDFC3B
3EDE8017
3E9CE7CD
3E01D29E
3D9EC56D
BB8FEAC4
3C495BFF
3B6A6C1A
BDA94C44
BD76ED67
BD01E68A
3D11BA3D
3DB60957
3DAFF21B
3DC8D003
3DE7B80B
3DAE746D
BE1E8790
BE8F7E5F
BEF3AA7A
BF516313
BEE4CF6C
BE34EEBF
BD074539
BD9E3E29
3DD1769B
3E742246
3EADA943
3EE688DF
3EAD2D45
3EC156E2
3E64534C
3E0542E5
3DC92253
3D910236
3D8B0D0F
3D497E99
3C891C08
3CA81345
BB9D27C4
BC60FC2F
3D2D8A11
3D36A61A
3DCC5B8E
3D8C9D9D
BE231056
BE687011
BEEB9410
BF0F24C8
BEC0F451
BD8ACD9F
BD450CE5
BC5C011D
3C448ADF
3DADA87A
3E62B1F7
3EEB8F58
3F006B9C
3EF4AD36
3EF8C77E
3E700086
3E55308C
3E1C371E
3E1924AF
3D737974
3D95D356
BD819C17
BD0357A3
BD821E1D
3D17C4E3
3DD7D178
3D634B94
BDD60F1B
BE4204B0
BEB5FA44
BF05CF25
BE319D67
BE38CC14
3D15BCCB
3B2137F4
3CDF2885
BCA0A30E
3D832FCB
3E2F6406
3ED8DF7A
3F0244B7
3F10B513
3F13A80D
3EE5F6FD
3E99E625
3EA2A002
3E52D624
3E2924AF
3D42CF53
3DC52D66
3CDFBF83
39D77B7C
BD666773
BD9757D6
BE5D8CF4
BEC3D0E1
BE4D1AEB
BE5FFD61
BEF63AC1
BE85974E
BE0D3177
BDE6106B
BC2009F6
3D05E6FF
3D02BC73
BBA5F84D
BDA0B34E
3D702928
3E082B1F
3DED62BF
3E474752
3E33FBBD
3E184556
3E610907
3E36583F
3E48CEF6
3DE8D973
3D6B399F
BDC4C1EC
BE33DF2B
BECD8C09
BEF17A25
BEF93511
BEB19F3C
BE5708AB
BC9F5BE6
BE575AFB
BE915A08
BDD7CFE6
BDD2FC26
BBC5EB31
BD06D613
BD09CC32
BD0C0CE9
BDEB0319
BE00E0A8
BE3606FB
BE917CC4
BE2CE9E6
BEC3DF6E
BF168AD7
BF4B00CE
BF66F230
BF6EDA12
BF28EEBF
BF7B357E
BF8A1544
BF5BB518
BF7C7161
BF38574B
BE8B4480
BDF10B20
BDBB0E5E
BC4B039F
BEA4DE3C
BDC3FAB1
BDE28DCA
BB86833C
3CE7FD3F
3C224463
3CDD0310
BCA72431
BCE0285F
BDF93F6C
BE56DA45
BE9EC6BD
BEB00560
BE992FD3
BEEA322B
BF476556
BF5F80DC
BF63C9CD
BF57036D
BF3BE048
BF531D60
BF4DFB72
BF1D5315
BF05D24A
BEC332CF
BEB3022E
BE4574B4
BE52AED1
BD8BC1F0
BC088723
BCF55FFE
BB81450F
BD02CA15
