BBAC8E69
BB8954A8
BCA64E48
3CE8D973
3C3124D1
3C90ADCD
3C805815
3CB8BCE0
3D10C804
3C69C454
3CFAA68F
BB94EE39
BCB17482
BDB641F6
BD184D34
BD6618CE
BCF060BB
3C080D80
3C436545
3CD5714C
BC74A98B
3D0E50C6
3C7ACE68
BD08ACE2
BC9A0AD9
BC76C69B
3C90385C
3C203C4B
3A90928A
3C8E1F7D
BACFE154
BC455864
BC63D1CC
BB36F9FD
BD1D5E4A
BDA7B02D
BE2ECBFB
BE6CD91F
BE63A216
BEC0F909
BEA236C1
BE945FE1
BEB8A287
BEBDAF8E
BE8945FA
BE6B2DD3
BE80B04B
BE1A4C1F
BE35F7C6
BE43ACD6
BDB78898
BDAE3476
3D0E11DC
3C9B75A7
BCE8F8E8
3C50F627
BCE3D1CC
3C4EAF25
BC10B84A
BDA91E21
BE0DD69D
BD428805
BDAF6CF0
BE46E5CD
BECAB346
BF0557CD
BF119F2C
BF32310E
BF40CD75
BF5E99C8
BF6909F2
BF5C9B74
BF48BA84
BF473FD9
BF411D58
BF46C216
BF1361CC
BECC86F0
BE9E32C2
BE51205C
BE71C3AD
BE2630EC
BC35C39C
BCB8348F
3C817332
BCFF1F9B
BB39884C
BE081ADF
BE462802
BE363993
BE5D2C38
BEBAEF0B
BEC4A8E3
BF0195EE
BF2C26BB
BF3F1C00
BF63C0D3
BF72AA19
BF73D73D
BF7E3C64
BF79B739
BF79975F
BF73822C
BF7A6DAD
BF5AD2BB
BF465797
BF0F910C
BED26741
BE847714
BDD30942
BD340C41
3C216617
BC2C14C6
BD6B3CC5
BD8DE871
3D56BFCB
BE15946C
BEA27F80
BF16D46F
BF0F1CEB
BF2D62D0
BF479410
BF7C1E8A
BF9331E4
BF9D5001
BF9C3023
BFAD87F9
BFB200B9
BFB11223
BFBC413E
BFBDCE7D
BFB15287
BF9E42A6
BF567D46
BF554FBE
BF47E6A3
BF29183B
BEDCFA6A
BE5C3CE2
BDA174C5
3D03E63F
BC4E8102
BE3D5BAB
BD911F92
BE7DC619
BDC68449
BDDA4053
BE1663C7
BEA47714
BEC96745
BEED90E2
BF1447B2
BF15130E
BF2F357E
BF475159
BF4E1FD1
BF5814F9
BF860182
BF76DEFC
BF7F36BD
BF9C74C9
BF7A1FF3
BF4C4923
BF840ED0
BF5128D0
BED2DBA5
BE926B94
BE1111F1
3CE1CBCD
BD80229A
3D9416BE
BD95DFEC
BE41D8A5
BC9B6912
3CC093D9
3C938583
3E1B2E9D
3DCDCA8E
3DF13A50
3DA9270B
BDA7E0F0
BE60010C
BE958EEB
BE998783
BE5AAFBC
BE773754
BE8DD13D
BE966D16
BE525E9A
BE0C0097
BE88E9B4
BEE567BA
BEF84B7F
BF51F01C
BF0F4EEC
BE75796C
3DA27BF6
3DA0242D
3E264303
3C783383
3D60C283
3E2AEC4A
3E764ECF
3EAE049F
3ECABBED
3ED2871A
3EC73DE2
3EB772F7
3E7D4307
3D4B73D2
BDEB1FEF
BDEF52B9
BCDD8B61
3CA7BF62
3CAB0A70
3D6DE54B
3D58A223
3D1780BB
3C8F3CB4
BE4696A2
BE9A875D
BF19203A
BF087B14
BE84768E
BD574F72
3E386057
3E4A5094
3E5A4BDC
3E744849
3E93C558
3EB964C7
3EDEBC41
3EDC3090
3EA29457
3EA8D3F2
3EB9374C
3E915F24
3E352DED
3E3A5D6C
3E353EB4
3E849731
3E69AAE7
3E394FF0
3DFADEA9
3DE9906D
3D8FEA3E
3DC22681
BDA07A29
BE9F954F
BF04A58B
BEFB165D
BE6E35C6
3E1EEAA7
3E531B9B
3E8D744F
3EAA4053
3EBD694D
3ED8941D
3E8C88A4
3E82A759
3E841FA7
3E23311A
3E161390
3E588F86
3E8B250B
3E9244E9
3EBA5094
3ED52674
3F064181
3EE6C5B0
3E85D702
3E2163FE
3E01A71A
3DEB6849
3DF4F377
BDB3E9A7
BE8CDFAD
BE327BB3
BF02C7FC
BE0445AA
3DFA74C1
3DE68230
3EA09F62
3EDEF7A1
3EDC3090
3ED3F39D
3E6B1034
3E22B496
3D01A262
BD467DFE
3D567BA2
3DF62846
3E4A9F38
3EE64F12
3EDC9753
3F0DDF55
3F35AF3A
3F032AD0
3EA5BDF9
3E594C01
3E3BE879
3E5A02B8
3E3EBA28
BE0435AD
BEA028A2
BE0592DA
BECE789E
BD81C151
3E426AEC
3E7EA854
3EABE6A3
3ECD885D
3EE065F9
3EA924AF
3DFFF716
BC726F1E
BE29C993
BDF04BC2
BBD184C2
3DACAA32
3E8C4A84
3E724BBA
3E895C21
3EC5BB9D
3EFBFA2B
3EC30A0B
3E956C2F
3DC827B7
3DE4C37E
3E41C6D2
3D9F3A58
BE74CE81
BEF453F4
BEBAB90A
BE807B14
BD5D93C4
3E3102BC
3E8580A1
3EC11772
3EDFB6DD
3EDFE0F0
3E5EAC43
BD85D52C
BE225919
BE34E161
BE8608AF
BE3FD695
BE1F1173
BEA00F77
BF0422AB
BEE3CEA7
3CE4CF8D
3EA3EEA2
3E88C522
3DDE4BCB
3AAAEAFB
3D44D984
3DBFF690
BD17E34C
BE625461
BF34F91A
BE72A844
BE0E5E24
BBB4AEC9
BE0575C0
3E595747
3E705AB4
3E8BD6A6
3E974342
3DCC918E
BE2BC409
BE9E0B4E
BE8B4B51
BEBD9F6F
BEC8342B
BF227CD0
BF86521E
BF922FB6
BF45ECE5
BE4AA2A1
3DCCA3E8
3DB089A0
3CEB7458
3E19EE89
3E2929ED
3E0B0F28
3DE95315
BD44D339
BE48EC96
BDCA2F49
BE57E23F
BE2A61E1
BD62DE87
3E1D0E99
3E0A82E8
3E4B97FF
3DC6FBD2
3CCC07AB
BE3B8AA0
BE9AE105
BEA088B5
BECCC4AC
BF012019
BF4D653D
BF81CDA3
BF69F81A
BF0DD9A1
BDB56C0D
3D4E93E2
3E1BF8BA
3E9229C7
3ECA7419
3EB45ED5
3EA4CA71
3EAC94D5
3E41FB40
BAE3AC0C
3E006E1A
BE781E04
BDC4E161
3D7123C4
BCA44A62
3E05D6BF
3E25D702
3D75DFEC
BE23B18E
BE43508F
BE89D27C
BEC11D36
BEDAB51C
BF0B3CC5
BF20A6FC
BF3FB6ED
BF1F708B
BE9502CD
3D18383B
3D9BB624
3E822D95
3EC42DCF
3EE5219B
3EE352CA
3ED7B891
3E8E410B
3DCEDCC2
BD6FD86B
BDC1D324
BED1BDA5
BDC2C882
3DD9FECA
BDB701DA
BC104F6E
3DA773E2
3DA7B891
BDA30F49
BE0100A4
BE2D5736
BE8E21FB
BEC7D60F
BEEA95C8
BF0BD2A6
BEDBD1AB
BE7D67BA
BD89BAE4
3D92EE85
3D9A4ACF
3E3B95E6
3E9CD91F
3EBADF50
3E8FE133
3E3273D6
BCB26395
BD9EADD6
BD71348B
BEEADE01
BE9C3A43
BDD9BDC7
3B5466F5
BD07AE14
BE1E2C13
3B6AAF36
394A600B
BCAB2BFE
BE025354
BE84A212
BE877293
BE9BB880
BED7BEDB
BEBB927D
BE1F2CF9
3DBE5EAB
3E46238E
3E0DB984
BD69856A
3DCBC83B
3E605E1C
3E350093
3DCC8B44
BD80F1B2
BE425A68
BE8EB617
BE704684
BE85ADB8
BE816851
BE3919AC
3D144AA5
BB1613D3
3CAC4502
BCC1AEF7
BDAAE968
BE81F927
BEA9378F
BEE03105
BED2B192
BEB0359C
BEB7D4E1
BDD43F1C
3E0D58C9
3E9ADA98
3E2A7DED
3D80AC7E
BDBD74D6
3CC9D9D3
BD3DB3C0
BE0AF428
BE7378AB
BED23E18
BECE7F4E
BF292AD8
BF00DB8C
BEB3B8E5
BE306E5D
BE7622C4
BDD32724
3DBEB7CC
3B60FC2F
BD67D34E
BDF426FE
BF06E18B
BF20AAC9
BF66C062
BF1BDDEC
BED3037D
BE4F6662
3D6FE60C
3E75D13D
3E71450F
3E09FA12
BCE73A36
BE5D7D7C
BE1DE332
BE6D4802
BEC59253
BEDCFA8B
BEFE86E8
BEF408D9
BF3FF9F8
BF18C20D
BEBA55F3
BE0AF683
BE0A78F2
3B7DD228
BE01016D
BE839347
BEA2A3F0
BEDEFE72
BF7F7C24
BF6652AC
BF3C126A
BF07B58D
BE755608
BD507FAA
3D9D145E
3E0B44A2
3D197B31
3D0F2BED
BE04156E
BE87B507
BEAB8173
BEBB708B
BF0C11E4
BF22B53D
BF07D827
BF06160E
BF02DBD7
BEB90FB6
BE940208
BE1EAC43
BDC9A911
BD9F8EC1
BE2AE968
BEBE31F9
BEF1D430
BF09057D
BF1D9CAE
BEC672B9
BEBFE5EB
BE8CC8DE
BE3364BF
BDC2352F
3CEC28B3
3C9B152F
BC13EE5F
BDCC73AC
BE248BEB
BE5CD530
BEA0203E
BECE5B64
BEFB8DA4
BF0B1498
BECB73D2
BEF9E2BD
BF2B3062
BEDA758A
BDA4BA0F
BE1EA4EC
BD9C38B0
BD33C4F4
BE320F6F
BE8380AA
BECCD1A6
BEA78C22
BCF77F28
BDD95897
3C1307AF
BDB30165
BE124207
BCD1697F
BD2E6EA8
BDB84902
BDE6EF3D
BD9687B1
BDB328B7
BE0C3B4F
BE3E3E29
BE943E10
BEA8E608
BEC66C2B
BECE5083
BEFAB713
BF0CAB82
BEA24BFD
BE15C359
BE1989DF
BD7D1CC1
BCC53B08
3CEBBFD7
BE9C9BC7
BE830B18
3D8F53C5
3E44623D
3E48F041
3E1BA909
3C671CDA
BD9D32C6
3CFD9989
BDB9463D
BD98A19D
BD8C1440
3C01F538
3D1FB613
BDADF480
BDD676EA
BE188CA4
BE8F3FD9
BE956712
BEAE70C1
BEDF24B7
BF0192C9
BE5B4DCF
BE0181E0
BDD0C671
3CFA9C13
BCF61CBD
3D0473CD
3C93D534
3DEC5437
3E8886E0
3EB42891
3EC2D2BB
3EAE4FB9
3E61DB87
3E03A084
3DD94531
3D9C32EC
3DE63AE2
3E348302
3E4815A0
3E14ED70
3E0B5137
3DACA793
BCB9C737
BE1E0A42
BE54A16A
BE4F8A09
BEBABAE0
BF0A2952
BE82FFD2
BE3C9214
BDDBE4CD
BCCB72C5
3C1D1F60
3D088E7A
BE22C7B9
3E242FA5
3E81C582
3E9E19FC
3EA1CC53
3ED2A194
3EC7E0F0
3E850460
3E80420F
3E7B6391
3E897332
3E951D8A
3EB06120
3EA59147
3E8D5F9A
3E7B6C7A
3DEA66DC
BC4C89B1
BE3C89F4
BE1AB820
BD3E37DF
BE71E604
BE233871
BD941073
BDADB728
3D0FBFC6
3BA0CAE6
3CEBA6AD
3CC87336
BDF80347
BDDA00E2
3DE856E7
3D9D0529
3DD16FCA
3E1A9B4A
3E3FBB0E
3E27B56C
3DD3397E
3E183E85
3EA258B4
3E948F54
3ED5AF29
3EC5AAD6
3ED7C5CE
3E899829
3D0D24E1
BE3BED74
BD3E542E
3DC50DF1
3D253112
BDB25700
3D81B3AF
BCC8E8A7
3D054478
BC46E6DA
BC0AF816
3D05B5B7
BD014F8B
3D76BE38
3E25918A
3D728F9F
3D2ABDE4
3C6C3116
3E119DAA
3EA1D66B
3EB03212
3E79E3C9
3EB095AF
3EB0AF81
3EAF6B5D
3ECA50F8
3EA2A950
3E6152B1
3E3AB085
3DB1F46F
3E14A490
3DD7060C
3DE15C21
BC8FC936
BB4E5F74
BCFF9B56
BC6F2C73
