BCB24639
BC8DEB10
BC6B356E
BC319E73
BCD9D990
BD102257
3CDDD4C7
3CE40E9D
BB4DB7AE
3C00D802
BC6B56FC
BBCDF267
BD1FE436
BDB7963A
BD9AFD11
BC1ED7C7
3CC20D56
3D00F66A
3C83925C
3CE94680
BCAB8844
3CBCCD10
BD075E63
BCC46F9C
BCB32AD0
BD0A44C8
BBE84AD8
BCA34656
3BDB1E9F
BCF9F01C
BC83B603
3CD8409E
BD11EEAA
BDC3F898
BD9015C2
BE399243
BE6E6107
BEA3F983
BE8CBA73
BF1067BE
BEF8192A
BE90E497
BEE68640
BEEE3561
BEEF993D
BECD2807
BE90051D
BE835A64
BE75332B
BE48CB8E
BE390646
BE004B7F
BC858FF7
BCDF351A
BCBE4EF0
3BC6C54C
BB7FDA40
3C97D6B6
BCE685DB
BDE943E1
BDE4449E
BDF35A86
BE7E12A5
BEEAB94E
BF04ADCD
BF3D9FD3
BF50D131
BF789668
BF78A43C
BF9934DF
BF9A847B
BF8FD389
BFA58D47
BF94677B
BF30180D
BF7C5804
BF600F99
BF2439DE
BEC24DF4
BE6A1EC5
BE6C6EF4
BE052546
BC2FC04D
BCAE5797
3D03B4F6
3C9563AA
BDE0852B
BDF4916D
BEABF9A5
BEAD5DE6
BF0372F7
BF2CA548
BF09DFCA
BF483B2E
BF6876F3
BF895F9A
BF6F4C90
BF35C582
BF49B867
BF5342AB
BF7D9CAE
BF7ECE89
BF5469D7
BF22B52D
BEED8666
BE4EE632
BE1A0514
BD8D1740
BDE2BA5A
BE0A3A8E
BD93604A
BBD9F0A2
BC3DE82D
BD9A8827
BCF2367E
BE82AB47
BE9452A4
BEF5794A
BF180CD8
BF0B3494
BF0441AB
BE7EB24A
BE30D9D7
BE056B87
BDA365CB
BDF569F5
BDE36B09
BDD944AA
BDF40032
BE595571
BE975D35
BEDDE269
BE8B456B
BE1C45CC
BE6400FC
BE9E62DC
BD18958E
3DADA2B6
3D5AF8DF
3D916E37
3CAFA0D7
3B858FF7
BE66D506
BE3AB7DC
BEA86E1A
BF029A91
BF21DC62
BF0280BF
BEC1C4B9
BE6EE4E2
BE4B2D90
BD7B1AF4
3D13D31C
3D9C9EED
3DEC32A9
3E13A53C
3E4054EF
3E522963
3DAADBC6
BD764AE0
BDF40896
BE187B57
BDB8298D
BE8A4A49
BE688872
BDEA7C5B
BDC25311
BD878317
3CE9FADB
BDD7BAED
BE76B0D9
BE9CC101
BEB60503
BEEFF823
BF0ADC3C
BEC1E27A
BE3A5658
BDD742DD
BDB74928
3C944ED7
3D4A7829
3C84A516
3C7D0071
3E1E32E4
3DF1C6D2
BC145B6C
BD45FBF8
BD9C408E
BD9127F6
3D81D218
BCF687B1
BD42A993
BE649060
BE73B320
BE1D2418
BC231E7E
BD8BFFCE
BE25097D
BEADC3BD
BECF2064
BE81DDA0
BEBAD128
BE82E3A4
BD7A16E8
BB5B0575
BD47C41A
3D082F0E
BC2554B9
BCF72713
BD6EC28B
BD99C1F8
BD477250
BC5D5D3E
BE0C8B87
BD8B9991
BDDA5C1C
3DB35009
3E4EEFE5
3DB4D163
3D9947D0
3C0D477C
BE711905
BE4FCA43
BD3646AE
BDC9D40F
BE7E8DDA
BF207875
BE793D96
BD40E6B0
BE384381
3CDFA872
3DE2107B
3DD0B0F2
3E1F8727
3E0B49E0
3D7D0AEE
3DF27ED8
3D26DCE4
BDE42AED
BE3B84DC
BE0435F0
BE05FD05
BD98B71C
3C4C6C55
3DD694CD
3E831F68
3E6CC4F0
3E6CB817
3D6A24CC
BE743CC0
BE6BB7B7
BCD3048A
BE1D106F
BEAB6AC6
BF2BE953
BE4D4C77
3D27557A
3CD21BC1
3E0B024F
3E717D6B
3E7F355D
3E509BFA
3E1D9C28
3E1CAB82
3E1A3055
BC54AA11
BE8DAF29
BEEC84F9
BE9F7E3D
BE1165D4
BD45EE57
3D8FE261
3DE9BE0A
3E4EC6BD
3E9F316E
3E9EE2EB
3D8AF3E4
BE58B9BB
3D032A8D
3BA6223E
BDEFD86B
BEA10FF9
BF49567E
BEA89BB7
3DCD5BEE
3DAB228E
3EA8DED3
3EB53911
3EAE5F31
3E754E6E
3E44ED70
3E14A2BA
3E54C7B0
3D2AF790
BE8FEFBF
BED874EB
BE8F9DF5
BDD38690
3D85974E
3DAE464A
3DA71EF3
3E89C9B4
3ED77597
3EE31034
3E48CBD1
3C1F340D
BCDC4439
3D1F0D41
BE4913E8
BEECC78F
BF7DAD64
BEC7AE36
BC09F83C
3E612275
3EB00991
3ECABD5E
3E9885D3
3E81E881
3E19BF9C
3E112839
3EAB295F
3E980991
BD68155D
BE4AC4B5
BD86F0D0
3CF4A772
3DDFBACB
3DE117F8
3E1892EF
3E7E8965
3ED22F27
3EF079A3
3F057300
3E8E7F6F
3E3E1C9B
3CA45F5B
BDDD2179
BEC89E99
BF351C4C
BE6176DE
BB80064B
3E3584B2
3E9D25AB
3E2B1184
3DE3F141
B9895D0B
BDDF9DF5
3DB9FE43
3EB9882B
3EA9D55E
3DBD712A
3D95BF6A
3D98D478
3D3D8277
3D18FA37
3E1111AE
3E2EEAEA
3E77BBB6
3E826245
3EA5F19D
3EB3AF53
3E464841
3E038759
BD1BAA15
BDCE147B
BE28BEF9
BEF3CA32
BECA3854
BDEEA39C
BE3EA78B
BE17CA64
BE85FEFC
BE7DC593
BE667AD9
BE5BD902
3E09D40F
3EB6FF3B
3E648ADF
3D8DFA44
3DEF2735
3DEE6C8F
3C19BB28
BDBD5348
BB8BA83F
3DBCFE58
3D793576
BCB8EB03
BD2CB103
BCAD7300
3C7BEB9E
3D4C521E
BD317482
BE048909
BDFE7AFA
BEB17870
BF22221D
BF00063A
BF1A7A10
BF2E7EE9
BF22A066
BF207853
BF00B8AE
BE759296
3E7C4589
3E8569F5
3E080C74
3DED2E51
3D21943A
3D9BA7FC
BD805EE5
BE82784B
BE8ACFD9
BE3DA33C
BE6E707E
BE9B6BF4
BEA5EB74
BE85C726
BDB13837
BE2EC743
BE01DEAD
BE16DF40
BCB9A177
BE926D8B
BE3D8128
BF2B572E
BF705D96
BF512D66
BF482CE4
BF0F3BEB
BEA9E6AC
BD985404
3E8965D4
3E645FE1
3E64D1A6
3DB57A35
3C9D8E86
3D6CABC5
BE853261
BEBE9EC3
BEC26091
BECC83CB
BEDF2629
BEC39D1B
BE9477BC
BEA2FB7F
BE91717E
BF041238
BE5F88B9
BDC4CDFB
BE132B56
BE44727E
BDF71194
BF60370D
BF4D4856
BF4906AB
BED399B3
BE23F24E
3CA7E521
3E1C3937
3E38194C
3E8381B6
3E4F36AC
BCE66ECA
3C5D872F
3AE9B38D
BE87F2A1
BEDE4E05
BEBB0660
BEBCAC08
BEBEAC64
BEB86940
BDE3D1CC
BE553AC5
BF0D5150
BED9144D
BE3DE2AC
3CA4B557
BDD87B57
BE46E43B
BE92009F
BF5329A2
BF3FCA32
BEF0AA22
BAD3AE68
3E6A832C
3EA1409A
3E886C44
3EAD09C0
3ED592B8
3DC66CB1
BDD59F6F
BDBAB4B7
BD7B7D85
BE663AE2
BE9B1B9B
BE91ABF3
BE4F4730
BE8F6167
BE3BEC68
BD52D773
BE00D068
BF3A8C26
BEAE9920
BE491A76
BDA06E1A
BE0303C0
BED8BAA6
BF15C1D7
BF70DFBD
BECB83F1
BE3A4FCA
3D95E0F8
3EC9F645
3ECC90C5
3EB665BF
3ED46AC2
3EAC99F2
BCD11BE7
BEA3E165
BE347A18
BE230510
BDE96788
BE2B0F28
BE2359BC
BE54C1EC
BE6DA4CF
BDD3FB7A
BDE01041
BEAEB207
BF4A6613
BEA4F26B
BE2A8C58
BDE83233
BE1FC8B0
BEEADD9C
BF247FBB
BF36EDEE
BE6EA67F
BDFAA151
3DBC8191
3E91DDC2
3E8A5CE6
3E86F805
3E240571
3D858DDE
BEA8C4DF
BED9BD84
BE5579F2
BE2AC711
BE31209F
BE3EFF5C
BDF73A79
BE2B1CC9
BE1292C5
BD005A2D
BCC27A63
BF0D93F7
BF5BBBF9
BEB8C437
BE0E264E
BCCB89D7
BE551A87
BEF138DE
BF32B702
BF0A3E7D
BE2B3BFB
BD80A0F5
3DBEFB6E
3C3D944B
BD4E3CDA
BCCCEE5B
BE1208E1
BDEF1FDE
BE93AB65
BE8C6866
BE6E8FB0
BE6C69F9
BE68DDA5
BDE8A8B1
BDD30165
BD451330
BD549E88
3DCE075F
BE169AD4
BF3C9332
BF1EFF4C
BE9A9197
BDE16BDB
BDC68555
BE6AB8E9
BEA09C3D
BF25D6D0
BF3C9625
BDB36156
3DA8E608
3D353D64
BD8D22C9
BDFA7222
BE0EE49F
BE06540D
BD4B2746
3DA87F45
3BAC29BF
BD6A6C1A
BDD53C58
BE10CC79
3BAC8E69
3D6D03DA
3D464FDB
3D4431BE
3D9BEA92
BE974EEC
BF2C8B22
BF007703
BE9728A6
BD505293
BDD5CA6D
BE30DBAD
BEA1E647
BEB826EE
BF109870
BE5D527E
3C2CF313
BD328416
BE1FADB0
BE400475
BD219546
3D3F6E3F
3E84729F
3EAE325D
3E742C80
3E053C9B
3D4D4131
3DCC6A3C
3E1CA57A
3E3EBA6B
3E00E1B5
3E0FFE6D
3D6AC754
BE9BA238
BF05796C
BED9782D
BDD47497
BD8E9B39
3C408FA8
BBB7DC7B
BE38B828
BE9AD795
BEBCF93C
BEED4F16
BE68C9B8
BE551937
BE501EEF
BDF3B6CC
BC5C6E2B
3E1185CF
3E71FA33
3EBF2A39
3E9E09BB
3EA04817
3E84FD8F
3E867A53
3E81F517
3E9577D9
3E4C7D5F
3E24C7F3
3D3311A5
BD86644E
BE390AFE
BE636AC6
BE65F41B
BC669271
3CE16D6E
BD1186DB
BE0FCB0C
BEAC182F
BF06D85E
BF09A6A4
BED21DFC
BE46B980
BCBD4068
BD1B6E50
BD2428D4
BD5C7043
BD99799E
BBE11559
3DC0852B
3E04F50A
3E6C460F
3E30ABB4
3E86E526
3E99780C
3E8E74D1
3E0847B2
3DEA7504
3D02BF98
BE5404EA
BE2E16D7
BDE97E13
3D03BE66
3CC1871E
3D0460EE
BE005C03
BE189A02
BEFD76CD
BF218A55
BECDA555
BEF94EA0
BEE94A90
BEF39E49
BEC20EE9
BEDFC287
BEE33743
BEEBCCAF
BEA25B10
BE6AA194
BE65BAB2
BE3AB474
BE5BBBA5
BE29DF55
BE214E7F
BF06C493
BEE0CC36
BE048388
BE96718B
BD9C8C0D
BD8B5350
3A5FDEF8
3C6AC42F
BCB81F97
BB537C13
BDC0ABF7
BE98B179
BED321C4
BF1423B8
BF4325B3
BF20D75A
BF27E47A
BF38DD2F
BF68346E
BF69ECB3
BF7263B7
BF631E3A
BFBD2978
BFC72232
BF94AEB8
BF5327FE
BF776513
BF407CFA
BF14D9A5
BE82D081
BD4013EC
BE2EE914
BDA2F380
BBBF7F06
3CDF7A4E
BCD451FC
BC484F90
3C94812C
BB468230
BDC5ADDA
BE184407
BE5E2479
BEE9A3D3
BF00767D
BF1D4691
BF0852E7
BF755422
BF86BEC6
BF79FA76
BF72FCDF
BF68C1CA
BF784513
BF288462
BEA3BFD7
BEB417EC
BE976838
BE921F08
BE4D0D06
BE0FFB8B
3C905187
3CAB7132
BCE5E02F
BD098916
