BC55F139
BCDBC233
BA52806B
BC85681F
3CC1B110
3CE5321E
3C6392E2
3CE5C704
3C64ABE7
BCCE7686
3D005A2D
BC6E2867
BD06E2A8
BD924FA9
BD9B4891
BD24FFC9
3CF7036D
BD01A47B
BCA04AF9
3CB72820
BCEC2481
3D03FD50
3D048BEB
3CE1AE71
3D09C3CE
BCF53E70
3CC80410
BC935B92
BCA7F5E8
BCB9756D
BBD8FD5D
3D032336
BD06DB51
BD949B63
BDBB8F58
BDE76FB1
BE185CAB
BE711E43
BE0AD42C
BF0121FF
BEE1F85D
BEC3B6CC
BEDEF8CF
BECFBAED
BEBEADD6
BEC6D0D5
BEC17B74
BEAEFB09
BE3FC47E
BE11A75D
BE0DB1A7
BDAEC4A4
3C26DEFC
BCCF7CAA
BCBE553B
BC3B7F9D
3C4111AE
BCB5E311
BD1C0874
BE0F21F7
BE060D02
BDEFE692
BE0E175D
BEB3DB5E
BEB175D1
BEF0B439
BEF23F8A
BF30E2C1
BF4AD7C7
BF715CEA
BF856DE3
BF85034B
BF8F1BAC
BF79F905
BF97CDDD
BF888859
BF28E150
BEEBF26F
BE91B9D8
BE86427C
BE61DC51
BDEB074A
BCCAF0BF
3A7F5409
3CB91926
3CEF75DA
BD092685
BE0C83ED
BE8C0A28
BE47ECBB
BEA935DB
BF13CBE6
BEB6084A
BEDEC700
BF430260
BF6D8C8F
BF810CFE
BF65C832
BF8CF71A
BFA3FF0D
BFAA99B7
BFB4F5ED
BF626656
BF999A17
BF84C038
BF110CF6
BF0FDDFD
BEC73711
BE9E6730
BE173754
BDB802C1
BCD74F72
BCC03FF7
BD7266BA
BE0E7968
BE673322
BE836AA5
BEA3C904
BF172ABF
BF1AAED1
BF2391E6
BF54D6E4
BF8241A2
BF9427A6
BFAC10BF
BFBE08C0
BFCF52A8
BFD8FDA0
BFD88E2E
BFC632EC
BF996CB5
BFA3419E
BF899410
BF6E72C9
BF515044
BF250774
BEC95358
BEDD15AD
BE809C1B
BD7E9425
3D04D445
BD0DE093
BE5F16F4
BE1C9928
BEBF4D38
BF0FA12B
BF5A1FD1
BF76E0F4
BF7A873C
BF8B00A4
BF4EACA8
BF1C1CB4
BEFF301F
BEC0A958
BE9C23B8
BECAEB3E
BF31728A
BF4BB1F2
BF39CF68
BF2EC083
BF20F712
BF3579E1
BF64792D
BF8E63E0
BF587747
BEF2DFD7
BE9106EE
BE1BBD38
3BEE17A0
BE123465
BE9F12C2
BE96B3DD
BF171E3A
BF5E0FF5
BF5F1CC9
BF6FEAE6
BF41C7BD
BF0FB69A
BECD3F5B
BE1158B8
3DE536D6
3EC0C804
3F096430
3F0CB189
3EF76534
3E838738
3D85FE97
BE0815E4
BE133615
BEC8F27C
BF288C50
BF852DD3
BF66CB32
BF02AA3B
BF01C337
BE3C3C5C
BD12F1AA
BE1767D3
BE97A41E
BEF40618
BF46D70E
BF420978
BF2AE408
BF0C6C12
BEE211ED
BED56345
BE3CA601
3DD51B50
3E996C1E
3EF248D8
3F206C98
3F48C62E
3F35DEBE
3EC3F120
3DD5243A
39F5E41D
BDD17ACC
BDEC3548
BEC0214B
BF1117D7
BF5652BD
BF47E2F8
BF0A4229
BE9F9C41
BDFEA3DF
BE9AA2C2
BECD2780
BF135F70
BEEDFC7E
BF01665A
BED967CB
BED0F606
BE8B0AB3
BE98403A
BE21E53B
BDD0307F
3BF94C88
3E5F3908
3EE04923
3EE6F028
3EA45048
3D5906CD
BDFD0A67
BE5A9DA6
BE145F9E
BE04623D
BE70C5A8
BECA6528
BEFDABC1
BF30CE1C
BF0DB6D4
BE26D3FA
BE1A3E7D
BE891149
BF054F9C
BEFC0486
BF04B0E2
BEB4F180
BE507464
BE396074
BE1FB507
BE4F51AD
BE0E075F
BDC7B891
BA6A5B53
3D9CA3A5
3DCA771D
3D51FB40
BDD88B11
BE84855E
BE5CFFA8
BE8786A1
BE4BCF0B
BE0C3EB8
BE45D074
BEA1652C
BEA3E35C
BF09EB96
BF05B5FA
BE408BB9
BE3385C6
BEA73669
BF1A7B5F
BEFE8E82
BEACC5DA
BE0B2032
3C8407CC
3CBE6602
3D1EE243
BD96EC5B
BAFFFBCE
3D504F6E
3DBC8649
BCDFE32A
BDFEF955
BE224D0A
BE3FE8AB
BE2F9D6F
BDADB1EA
BDB7CBB4
3C56DC1A
3C906035
BA217B0F
BDFCDE5D
BE916A8C
BEAABF12
BF016207
BE412CAE
BDEA704C
BED6FA1E
BF020568
BEE29260
BDBEDB73
3E306AF4
3E3FAEFF
3E54CC68
3E86A423
3DEF038E
3E07AEDE
3E329CFE
3D9112FD
BD1FEEB3
BE0E5D5B
3CBD2524
3DA4B87C
3E01E1D2
3DD1140A
3E416F87
3E7E5AFF
3E918D8B
3E62E515
BCFE3D1D
BEE80022
BEE7398F
BEC396D1
BE68C261
BE328028
BEC06DF8
BEF7CBD5
BEA4DEC2
3E487097
3EABA14D
3EA30C67
3E8C45ED
3E9BA7FC
3E8F7D74
3E776AB6
3E42C0A5
3DA29D84
3DBBC0A0
3E4B8B26
3E85BD73
3E868E1D
3E6BBA56
3E73E9EA
3EAB3700
3ECF4928
3EE479D5
3E89E4B4
BC9652BD
BF21D463
BF232D5E
BED8BF7F
BE4F5FD4
BDCD0DD0
BE900BCC
BED3BA99
BD038C11
3EAD8E22
3ED47D1C
3EB6275B
3E9C506A
3E865A14
3E81EC2D
3E8677F7
3E803BE6
3E2A7653
3E2C300A
3EA5A5FC
3EC779C8
3EB44178
3E86D634
3E9E1DC9
3EACCB5C
3EB4DB7B
3EB3C9CD
3E21B196
BEA018C6
BF528566
BF255875
BEC68F2A
BE15460B
BDC0B5EE
BE26FBD2
BEA21E3F
3DC20E63
3EC61694
3EA97119
3E8DC550
3E1CA7D6
3E11A933
3E46DD6A
3E70F5A1
3E51DF33
3E19D841
3DEFD114
3DE0BDCB
3E4CC20D
3E8E935C
3E9CACB0
3E19F773
3D535C9E
3D3AE9AB
3D563561
BE4DC055
BF0F403E
BF6D76FF
BF0314CB
BE6A0232
BE17CD03
BDEDD50B
BD9D3F5B
BEA4284E
3D92C062
3E577250
3E3273D6
3D017332
3D609AAA
3D82C908
3E0C814D
3E3CF6BE
3E43BB84
3D58409E
BDCA52F0
BDC44524
3D9F90DA
3E7C1A8B
3E37E9D9
BD8C5868
BE1499D0
BE4FB7E9
BE91626B
BEDC825A
BF1787DF
BF553672
BEEAF1CC
BD91A650
BE344FA0
BD6CC0BE
BE0893FB
BE61A006
BD976AB6
3DADB1EA
BCACC2D7
BDB2556D
BCC45ED5
3DBC66D3
3DFBEA0C
3E79FCB1
3E469B5A
BC36FE2E
BE823EC0
BE50196E
3C9207D5
3DFB57C5
3D2CEAAF
BDD3F530
BE77F280
BE854B6A
BECC36DB
BEA4FEDF
BF1E04F3
BF58D4AA
BF2F0DE9
BEA31DB4
BE7AF89C
BC805A2D
BD6C9E23
BE90CB6C
BE29CF57
BDBCB4F2
BE5928E1
BE444029
3CCB6630
3E3EB39A
3E81A438
3E70A9DF
3E605037
3CD2A412
BE198AA8
BE0460AA
3D7548ED
3D3824D5
BC05F8D3
BDEB10BA
BE0E4431
BE42A5A4
BE612D77
BECA9CFE
BF101ECD
BF71A46A
BECB2096
BEBB14EC
BE0F56EB
3D84955B
BCA5F202
BEACFE37
BEC337EB
BE3FBD27
BE9ED30F
BE266B1E
3D779C84
3DEF8C65
3E120792
3DFBE4CD
3DB2BF55
BD2A8976
BDCD844D
BC121038
BBEB56FC
BC5E1E2E
BC78B157
BDEBE9C9
BDBBD167
BDCBBFD7
BE1F71EB
BE890C2C
BEA9D81F
BF4436DB
BE84DD72
BEE97E13
BE774107
BD7CAD9B
BE6DB09A
BEB7FF37
BEA3B18E
BEFEE158
BED45A60
BEC550EC
BE85080B
BE694142
BE6A960B
BE80E6B0
BE2F8B15
BE1BFA8F
BE385943
BDBB2570
BE3D084F
BDAF0CFE
BE0E4580
BE3DCAD1
BE2328B7
BDAA0BA2
BD8D0353
BDD3F39D
BE6E39F7
BE9EDB2F
BCD2AE8E
BE8BA4F8
BE2E6363
3C7A00E2
BE429CFE
BE956CB5
BED3736D
BEEE84F1
BF312989
BF5DF7C6
BF4D5B79
BF2C8FEB
BF2CBB1B
BF055B36
BEB8446B
BEA3C515
BE8147D0
BE5DE97D
BE4FDD66
BE09424E
BE5F776C
BE80487C
BE0D73C9
3C266DBD
3CEC0D6F
3CDD3DC9
BDD6A833
BDB24FA9
3D799E52
BEB1BB28
BDEEAC86
BDCB838C
BE09B5A6
BE452DAA
BF0289B9
BEDC33B5
BF31A709
BF834424
BF75C1A4
BF3C6306
BF07CC7D
BEE3D5FE
BEEDF527
BEAB953E
BE854328
BEB0FC0D
BEA5F5CF
BE80F712
BEABD039
BE9160D9
BDFF51F0
3D88F29D
3DF9806F
3E211905
3DF20AFA
3DB3D189
3DBD6734
BE890AFE
BCE33051
BD4FDB0A
BE115098
BE3E0B4E
BEC875B4
BEF93986
BF6C79F6
BF5130BE
BEF51FE6
BE40C8CD
BE786940
BE85E7C9
BE8E327F
BE93C947
BECAC1F4
BEA81B43
BEC70E4E
BECB4D49
BE9D63ED
BE54BD34
BE046C33
3E0C1334
3E46848C
3E8FD0F2
3E9663E9
3D02602D
3D0DAC26
BE233D6C
BCF9E386
BB6703B0
3C051EB8
BE894A6F
BEC692D5
BEEB9086
BEA684AD
BE5D2C7C
BD64D7F1
3C1652BD
BE22BC30
BE32A023
BE59C172
BE8F3B43
BEB47B46
BEB664B2
BEE69143
BE9BC947
BE40C847
BC6FD007
3D8F7DB7
3E9628ED
3E968555
3EDEE569
3EC21038
3E7479D5
BB8C0CE9
BE0F0E4E
BCBA3EC0
3C098F60
BC0398A6
BE262670
BE846A1A
BE6559F7
3C05271C
3DE5D399
3E1C0DB2
3DAF80DC
3CA65F0F
3C3D017E
BD9A6F82
BDF3165D
BE54EDF6
BE7E27E1
BDE4FB12
BD2E19B9
3E633765
3E9B94B8
3EB1AFE2
3EFE0E95
3EEB4E33
3EE87896
3EDE2B06
3E4F8402
3DC00FBB
BDA6DDF0
BC1513F9
BC88B978
3BE9DD7F
3DA6B378
BE475148
3DD30165
3E8F14BA
3E6DEF41
3E4E5604
3DA7674D
3D98AB93
3DD6EDEE
3DDAEE63
3E3ED41B
3E3C0B56
3E8079E6
3E9DD399
3EB35782
3EFF1023
3F26FDEB
3F2A071C
3F2FB04F
3F15C52E
3EF5306A
3E9A6117
3E24E26D
3DABD1AB
BDECBA73
BA2F5FD4
BCD55A3A
BC4DF267
3C924074
3D75286B
3E397F63
3E490F73
3D8644D8
BDC11D36
BDB72713
BC88D8ED
BD1233DF
3CA96B33
3D747F99
3E017CE5
3E6AD213
3DFE9C02
3E1C1F86
3E5BF1A6
3EAE2110
3EBB5EFA
3ED3B4F6
3EAFE564
3E3646AE
3D9EC99F
3C5EFC7A
BDD10FD8
3CB20FB2
3CD21DDA
BD09D27C
BA84E832
BC634FC6
3CB79314
BDF32724
BE37B310
BDC17C1C
BD37ED42
BDFA3012
BE249C2C
BD79C737
BD055326
BD913598
BEF32724
BE057860
BE3CA07F
BF0D4E90
BF02E2CA
BD13C361
BD7DCAD1
3DE488C6
3DDF138C
3C9F9485
BE4A921D
3C957471
BC2FC47E
BB544567
3B41DB01
