3CBA2596
3C872B02
3CCDFEFC
3CC55433
BCE2E2B9
3C1DE8B4
BA1B738E
BC1728A6
3A538CDA
BCD6A162
3B096DD2
BC82A77A
BC619FC3
BD432767
BDAFBEBA
BCF913E8
BBAA7DED
3D0CD530
BBBEB5B3
BCE3A9F4
BD07DA1F
BCBCE209
BCBF78BC
BCBA55D2
3CF0068E
BD01B003
3C796180
BCE2EB1C
BCFFA5D3
3D1206C8
BC4093D9
3C44AC6D
BBDA76D9
BCFB5D03
BD526741
BE16F156
BE00B631
BE464495
BE6FDA83
BE920EE9
BE611FD6
BE9CCC47
3D847454
3D6730C6
BDD69E3D
BE90F430
BE2BFDB5
BE4640EA
BE2EE30D
BE41B867
BE228B2A
BD60828C
3CA1AB4B
BCF81E8A
BC12AB69
3B3EB5B3
3D08A04D
3CE16B55
3C5438D2
BD1F7D74
BCB1012A
BD0CE704
BDE9D170
BE8951A4
BE885CEE
BE8AFAB5
BEB768E0
BEB4BD34
BEABD2B7
BE4B11C7
3C4BEA4F
3DF2B991
3D90DC77
BE03BA77
BEFE4431
BEF35979
BEDC08B7
BED54A5E
BE4E2EF5
BE566B61
BE2547E0
BDEE8640
BCE3D5FE
3CA27AEA
BB34F1E5
3CE38866
3D4FD4BF
3D3BE447
BE888D8F
BE16323C
BE4F0996
BE6B1FEF
BEDE02A7
BF050082
BF0B66E8
BEDAC81D
BF2EE06E
BED915BE
BE3E07E6
BDEE07E6
BEA05250
BE939C0F
BEBEB745
BEE0C75C
BED9B003
BE9E3C10
BEA597B3
BEBE88DF
BE86EA42
BE371C54
BD850F84
BCB79B78
BC954435
BD7328B7
3D9C0B13
BD0EDD48
BD36F6D7
BE819EB6
BEC5AD10
BF109CA2
BF277143
BEEE7A74
BDBE79EE
3C892CCF
3C24F00F
3C11AFC0
3B74B620
3C4E1826
BE1E2B06
BE0F19D6
BD8FCBD5
BD12CBEA
3DD00CD8
3E28793E
3E6DE93A
3E414F8B
BDB5DD4C
BEBB6220
BE1AB9F5
BDC2CDC0
BC63C105
BC9EBA6B
3D8E74F3
3D698245
3D05EE57
BE878FAC
BEF7E3D2
BF1E2D62
BF6922EA
BF28054F
BE782DBE
3C6A1837
3CB90A78
BCAFFD1E
BD8975B0
BE0EB702
BE63037D
BE94B7D4
BE24A3C6
3D3EDB73
3E3C825A
3E9E5343
3EB8EFDD
3E913D75
3D38AD25
BEF0EC31
BE750269
BE09C51E
BCB430F5
BDCA569B
BDD20968
3CE162F1
3CFD7E46
BED88377
BF2C3C5C
BF3EA466
BF660BF6
BF5321B4
BEC730A5
BDD559B4
3BDE1199
BD9B6BB1
BE37FC76
BE4A02B8
BEC7876A
BEBBA8C6
BE65A74C
BDF1F362
3DD378EE
3E21EDE1
3E2F2A5A
3DFCF894
BE12B453
BF3D0EBB
BEB9CB68
BE45C3DF
BD807AAF
BE158927
BD93732A
BEDD7321
BF147EAE
BF0C0863
BF3D96B7
BF440757
BF4EB4FA
BF54523F
BF02173C
BE837415
BDFF56A8
BDD9578A
BE2C92DE
BE0F3D3A
BE341FEB
BE9395E6
BE9775B8
BDB7DFA0
BC200193
3D859F2C
3DC610F1
BDB56A7B
BF03503C
BF414C12
BE7FD3F6
BE6EF0F1
BDBDA8BD
BE07D285
BEAFC8B0
BF145293
BF1B721D
BF23AD19
BE9D0508
BF2D8A33
BF583F3E
BF40825A
BF228B1A
BEAA36E3
BE65E9E2
BD93C1CE
3D9D0529
3E5741D1
3DC4C61E
BD959147
BE202214
BDF972CD
BE01CE29
BE041180
BE3CAF2D
BEE6F651
BF4E2281
BF4A7914
BEF3341E
BE5F4B62
BE00B06C
3C222F6A
BED20792
BF1AB5C4
BF4CA537
BE96A594
BE80C804
BEB20E63
BF187182
BF2F2B02
BF2E464A
BEC6C072
BE6D6E05
3E166CF4
3EE0F9B1
3F02F2A6
3EBF1023
3D6AD0C4
BDC4AC6D
BE823811
BE7BB59E
BE47B17D
BEF8ADCD
BF401590
BF5DBE1B
BF30660A
BEADCD70
BE67A6BD
BE0FC19C
3D65E02F
BEFDF959
BF31EB20
BF436DFC
BF4E6D26
BF28B641
BEB2D0A2
BEDBC255
BF0A4E05
BF058762
BED16180
BE0641B3
3E882EA9
3F29CCB8
3F378F7A
3EF13965
3D2D31FD
BE8A19A8
BEA14749
BE907443
BEB96B55
BF15E11A
BF2DDC2F
BF1FC9DE
BE3A5C5F
BEA4D339
BD4A6B94
BE1D40AB
3D4E2E2C
BE738EF3
BEE4B74E
BEB00991
BEB8F66A
BF0C166A
BF14EE5B
BEE7403E
BEFC5A60
BEF06D50
BF097D07
BE615F03
3EB0D717
3F4894E6
3F429143
3EC2EC6C
BDD6B4C8
BEA54025
BEA9A88B
BECA53FC
BEDFAD6D
BF0B26C0
BF11D830
BF1C729F
BDAD5736
BE61A262
3D535547
BDEC4263
BE24E832
BE92C387
BDD8BF7F
BE133EFF
BEA7CE10
BEF6939F
BEEB5265
BE9BCB60
BECB7718
BF0BC1AD
BF1849ED
BEB0AF1D
3EB58948
3F4511BE
3F381F43
3E687592
BE841DF3
BEA1A177
BEE07875
BEE18DAC
BE8D36D6
BEB5DB34
BF046690
BF152E62
BE8F0C13
BE731C65
3D93F5B6
3DCEA4A9
BD9BBC6F
BE08FB01
BD069F8C
BD615769
BF2C4674
BF029069
BEC1AC36
BE4D1BB5
BEB3356E
BF1BD1FE
BF4267D7
BEBF15A5
3EF017FC
3F447033
3F269670
3D05CBBC
BEB49689
BEC0E2A0
BED33659
BECFC201
BE7CF0FA
BECFFBAD
BF28405B
BF298B61
BEBDE52A
BE81D6AE
BDC6490A
BD8A17B1
BCD1EFB7
3C94573A
3D08509C
BE0E989A
BF32E361
BF252418
BF0A087D
BF066D16
BEEB1E5C
BF3175E2
BF397C5F
BE664841
3F0B27DD
3F330E4E
3F049774
BDD41E15
BEF786E4
BF0018D7
BF21AB7E
BEF30AB3
BEAD9FB2
BF0F2431
BF122D30
BEC36FA0
BE7ED246
BD9EC80C
BD1B6E50
BD120C07
BD01F42C
3D926528
3C2C8605
BE943697
BF2E6373
BF498128
BEE4302B
BECBD274
BEDC7065
BF11C487
BEF5FC1A
3DBB0707
3F1862E5
3F2CB791
3EC2D667
BE977CCC
BF2048E0
BF39F4B2
BF80E7FF
BF70EEF2
BEE8EA5B
BF133EEE
BF3EC4D6
BF16F48C
BEE0548B
BE3832FD
BDDF6988
BD8A07F6
3DAB923A
3C423FAB
BEDB5CE2
BF2400C9
BF27FFEF
BEF01A9C
BED48D3B
BEEFB80B
BE92AA9F
BE9A4CA5
BE57F6B2
3E65E6FF
3F1C588A
3F1BE271
3E656473
BED3CF4F
BF47952D
BF5695D9
BF802047
BF675159
BEF9E6CD
BF1781A6
BF423077
BF069F17
BF11C24C
BE121922
BDBCDB38
3CC22AB2
3DB143BF
BE2DD228
BE7F865D
BE875B3E
BEF47714
BF0D4014
BF1150CA
BEC20360
BE80C826
BE186552
BCD7D178
3EB693E2
3F17E2F8
3F045650
3DF87725
BEDE3066
BF3B7447
BF2DACBD
BEF856C5
BEE2B6D0
BEA6B52D
BEB616B5
BF0075F7
BEF8DF59
BEE12535
BDFC193B
BDE95747
BD050375
3CA00E28
BE81CEF2
BEBD1612
BF0547D0
BF788590
BF61E59F
BEFE427C
BE5014B6
BE16B2AF
BDAB0425
3E1C24C4
3EBF5A32
3EFADA98
3EE84663
3C49EA9A
BED60B4E
BF07A509
BEDBC70D
BE80CE4F
BE89E083
BEAC7D3D
BECF2303
BEC10343
BF230069
BED1A587
BDC0285F
3D5B9F99
3DACFD8F
3D1A60D4
BE29E9D1
BEBE1134
BF2132F8
BF7A4BCB
BEE0F302
BE2BC771
BDDE9E1B
BD9FBD6A
BD01D29E
3E436C9C
3EB52EF9
3ECAEDFE
3E86D45F
3CA3B363
BE9897C8
BEB7CB0C
BEAD58C9
BE87CB0C
BEBF7AB3
BEFA73B4
BEDE47DC
BEA89B30
BE531983
BEA1DB01
BDC3C7D6
3DF0C4DF
BD05EB31
BE32ED35
BE4DB014
BEB31EC1
BEDB178B
BE96D246
BDD2AA5C
BCF6CEFF
BD77E6F7
BD7E74B0
3CB97FE9
3DD78CCA
3E154B06
3E001EAC
3DB7928E
3B2393EE
BDE3BE66
BE22F72B
BE3C679D
BEEA0AFA
BF0D4FBE
BF0F47A6
BF13266C
BEB99C9D
BE657215
BEA3FCCA
BCD141A7
3D4D77B8
3E04FA8B
BE0E236C
BE4AF640
BE2C0C63
BDBE37DF
3DDBC4D2
3DEF97EE
3CFD5022
3C7F9B56
BD9F7D74
BD3F76A3
BDC7D2C8
BDE508B3
BE0729F6
BD3ACC4F
3D297F20
3DA1E710
3D47F130
BC05B5B7
BEB5F4C3
BF07AFEA
BF24BEE8
BF38E6B0
BF01753A
BE6A8B09
BE94295A
BCD903A7
BB6A1837
3DDEE675
3C62AC32
BE42DBA5
BE5AE3E7
3D772713
3EAB6C37
3EA97332
3E1BA451
BD59C497
BDE47B24
BE3B1572
BEAA98CC
BECFE79F
BEA3CFD5
BDE5C9A3
3DB72368
3E9127F6
3EBFA95D
3E7F52FC
BDB66D7A
BEC87315
BF1D0364
BF1EC3B9
BEF9B2C4
BEDD1CC1
BE3EDBB6
3D743201
BC4D4AA1
BC583409
3C91EA79
BE894595
BE8A4873
3D25332B
3EB15183
3EA3F402
3E573E25
3D436A83
BDBEC13C
BE4AFDDB
BEBAFF4C
BECEC094
BEA8409E
BDB566CF
3E535C5B
3ED034D2
3F11EAAB
3EA71540
BBE3369C
BEB29F5A
BEFC9C6F
BEA690DE
BEC80410
BE5F3F53
3D4AB92C
3E30B999
BC99F7F9
BC29DA59
3D110A13
BE0D6DC2
BE49203A
BDFF676F
3DD97BB7
3DE6594B
BD53A0C7
BE14039B
BE99B0AB
BF12F0D0
BF33EEA2
BF18A44C
BF157204
BEADB595
BDE17B0F
BD2B9C30
3DFC7714
3D977100
BC1D51B5
BE8B86F4
BDDEC0B5
BD5144CC
BE05104D
BDFD6495
3D70DA5E
3D4651F4
3B9CA9EF
3CB879C4
3C63EAF7
BD6FEE70
BE4F2A9D
BE73892F
BEB60136
BEB1BAA1
BF094D62
BEEA2BE0
BF159557
BF2DD9F5
BF796649
BF4DE5D2
BF479BED
BF11B0EE
BF242E45
BF78F755
BF58C78F
BF50C283
BF504CBE
BF3728E9
BF0CB557
BEAB6417
BDF08DD2
BE580B67
BDE0724B
BD9D2E0E
3C0AD688
BC36DCA0
3D0140DD
3D115055
BDB88C1E
BE9B5EB7
BEA75B1D
BEDD5886
BF24E6F3
BF2F517A
BEEBFB59
BEF9ED18
BF142A02
BF46D2ED
BF347421
BF44DB9C
BF1FC82A
BF3D5D1C
BF2AB90A
BF425D9E
BF288B97
BF02D8D3
BEEB191E
BE96A4EC
BE37AFEA
BC470436
BDD227D0
BB73775C
3C623290
3B81D3AA
39EF1349
BCBA8827
3B70520D
BDBEFC7A
BE11FA76
BE222F27
BE6BE985
BE50CAE6
BE917204
BECBE597
BE91FE65
BED9D8C7
BEE83BC5
BF063F68
BF08955B
BF33505D
BEC75F0B
BE4774EF
BE9D03DA
BE91FECA
BE2AA476
BDCDEB96
BD8AF3E4
BC129670
BBF38822
BB769CAA
BA5130E0
