BB983D79
BCCCBC06
BBDC0981
BD078B7A
3D0EE393
BC6071C5
BB976BC2
3CC299D9
BC79DF55
3CF2CD7D
BC510F52
BC237692
BD8CC78F
BE08A761
BD951266
BDA25E9A
BC08051D
3BE44B6F
3C87DF5D
BB7A26A2
BCC7DE51
3CA29C78
3C05015C
3CE14BE0
3C450CE5
BD0A7504
BC40B567
BCA09460
BD05A5FC
BD0B74DE
BCD931CA
3BF11B61
BD92F124
BE03810F
BE4AECD0
BE8A261C
BE6B5C7D
BEA9D170
BED08A8B
BF06B39A
BF151C9F
BF19716D
BEC70197
BEA77836
BEEB9607
BEEF646B
BEDCFA8B
BEAE1C7A
BED0F7BA
BE42938E
BE1CA3A5
BD4CC576
3D0E90BC
3C1680E0
3B131013
BCDC3BD6
BD061A61
BC00BED7
BDD03644
BDB954EB
BD326E11
BE207CC8
BE9ACC4F
BEFF559B
BF10F0FA
BF3B63A2
BF5BBBE8
BF7399C4
BF8568B6
BF8CB791
BF82F7CB
BF86C869
BF8288AD
BF2A6688
BF828851
BF4F0468
BF395F03
BEC4EEE1
BE9DB7AE
BEAA1D11
BE6DFC5D
BDE54153
BCFF3062
BBBA16E8
BCC71716
3B4EF673
BD9E69AD
BE25AE1D
BE199631
BE5C7000
BEC0509C
BF2319D6
BF34CF6C
BF481483
BF565C2D
BF42979E
BF76A92E
BF94B978
BF8D496B
BF859C0F
BF45042E
BF2416AD
BF026E01
BED2083A
BECBCCD1
BE6D4413
BE21461B
BE4CB46C
BE7C2DF1
BE433C1D
BD987619
BC8943E1
BCBA237D
BD65BFAD
BE340746
BE052F7F
3C6AB368
3C061A61
BEA7E953
BED11B61
BEEC1A05
BED5E82D
BF0BDE61
BF13FCDB
BF27BD6A
BF0DC8A8
BF1A72B9
BEFEB8D8
BEA5844D
BE9A600B
BEA127B3
BD9A93AF
3D8F6F8F
3DB930BE
3E53EA70
3E3AE105
3E13E6C5
BD8A7504
BDC01C50
BDC97F20
BCB70692
BC8140DD
BE1BD05B
BD94FDF4
3DD34507
3DF7F6B2
3DB3FEA0
BD4E7579
BE41A006
BE0D117B
BE49ED39
BE670974
BE71CD60
BE87D2C8
BD65ACCD
3D2D57BC
3DB17508
3E07E1FC
3DF82E45
3E45F3D8
3E704F2B
3E880581
3EA0C88A
3EC44FC2
3E63671B
BB94141F
BE6B26C0
BE39B3D0
3CE223E2
BDA47779
BE7255B0
BE26EEB7
3E44299E
3E2C2ACC
3DCF294E
3C54801F
BD51E42E
BD537B07
BDF0EA18
BE3E5ABC
BEA249A1
BEDE01DE
BEE77D31
BEED6020
BEE375C9
BE9A1D97
BE6B291C
BADC768E
3D0F0F9D
3E4267C7
3ED829D0
3EEF670A
3E32FF4C
BC4DCCA7
3CCCEC42
BE5AED57
BD819EB6
BE42BB66
BEBBDD98
BDB42E55
3DBC78A7
3E13315D
3D1DF117
3CC8259E
BD5ABC0E
BDEB1DD6
BE0657B8
BE7C896E
BEEB7803
BF157E35
BF3CB4F2
BF539496
BF27A073
BEEB7B29
BE9B3FEA
BE032A06
BDA64CB6
3E00574B
3E9459B8
3E9B18DB
3AE1B4BB
BD200E28
BD4E8FB0
BE99EAFF
BD5097C8
BE491212
BE42A950
BE2CA8E3
BD89E668
3D7DDEBE
3C3456B4
BC6EAE9F
BD9D712A
BE0F1F58
BE72D44E
BE9E86A5
BEDA962D
BEF6E0B1
BF36EF80
BF44A505
BF1540DD
BEC6F156
BE302646
BE02E947
BCD19371
BC00DC33
3E03BA77
3DEB0F28
BCEDF1E1
BE0BFCA8
BD8D5BEE
BE60C283
BE0C0831
BE78383B
BE4DDACF
BEAF2EAE
BE6E5CD5
BD7C664D
BDCE58A3
BD64430B
BDC64990
BDC5A1CB
BE36CE36
BE84F9A0
BE487592
BE916F44
BF2A7A96
BF12E86C
BE7D1202
BE0B7D85
BD81B8ED
BD530CED
BD0BE942
3BB2D0A2
3DCC34C2
3C327CBF
BEAE35A4
BEAA5D29
BE6C37A4
BE88AD8A
BDFF633D
BE1765FE
BE934D8C
BECC56B4
BE004F6E
BD948345
BE2AD70E
BE039863
BCA02FB6
3CB07F24
BD06BBDC
BCB23DD5
3DD76CCE
BE588ACE
BF27AE68
BE66EFC3
3D2BA494
3CF94C88
3BA9A3D3
BD246174
BDB715C6
BD39B457
3CE8DB8C
BE358A76
BE860371
BED10881
BEEE58A3
BE143E10
BE4A2A91
BE84AC4B
BEAD985B
BEBF43C8
BE1748A1
BDD70718
BDD48A16
BD827393
3DCC8EEF
3E0A6FC6
3E8D88A0
3E9B46FE
3E9D18B1
BE712FD3
BF0B2303
3D741BFC
3E9B39E2
3E36223E
3CFE9D95
BD79E7B8
BE383127
BDE17A03
BDD7B7C8
BE6C9D5A
BF0A8EB4
BEBAE2DA
BE69131F
BDDB1B7A
BDB502AC
BE45C2D2
BEA584F5
BE4F9D2C
BE4710CB
BDCB8499
3CC445AA
3E141355
3E60DE8F
3E9C662C
3EFBCCD1
3F2B0FF1
3F06277C
BD05F4A1
BE819D24
3E0BF9C6
3EB08440
3E40DA5E
3DA9AB2A
BD0C4BD3
BE04F93C
B92E1049
BE23A711
BEE1DD7F
BEA58666
BE44B09F
BDA64FDB
BDF7C5EF
BDB8476F
BDF25892
BE93CE64
BE270CDD
BD1F41AF
3D783DFF
3E16F156
3E61E68A
3EADB2D5
3ED39ECF
3F17ACA3
3F45E14C
3EFB1487
3C6ED890
BDBB3A69
3E1F04DE
3EA9756D
3E9CF11B
3DD098D4
3D5899BF
3E026741
3DCB1CC9
3CBD4068
BDCCC250
BE2BEB18
3C1FCF3E
BDCEC95C
BD37EE4E
BDCCD39E
BD93AD5C
BE322813
BDAD6020
3DDC3E75
3E6598E1
3EB4195D
3EB8B7A2
3EAFEBF2
3EB8157F
3EF59EE9
3F12160E
3EBB70CE
3CC9CB25
BD70EF56
3E79AE4F
3EDBBA99
3ECDF80A
3E88B3D5
3E825F63
3E53AE68
3D772F77
3D3CAA76
3D522FAD
BCB0C88A
3CEB6178
BE860E52
BD362846
BDC5C1C6
BAA17B0F
BAAD2568
3DFE071C
3E3E84F1
3E81563B
3EACE39B
3EBB860A
3EADD4C7
3EAB51DF
3EA248D8
3EA4D2D4
3E46922E
3D0FA26A
3E05F634
3EC9567E
3EFC7842
3ECF672C
3E7E6BC6
3E70AC7E
3DA5BC02
BC35D031
3D9C9928
BBC27200
BE581840
BDD94079
BE61719F
BE3528F2
BDD797CC
BE0ED784
BDAD002E
3D8E31D7
BC174602
3E4BFB59
3E9C54DE
3EA708CC
3EA4508B
3E5DE376
3D41387A
3E00FCB5
3E0484D7
3E0B2FA9
3ED992C9
3EF8E608
3EF9FCB1
3EBBF402
3EA68837
3E6BC7F7
3E1C4DA9
3E173ABD
3D17CE53
BE1688BE
BE83AC2E
BECD803D
BE956CF8
BE222C02
3CFE38EB
BD9F2A9D
3D5EEED9
BD9D2392
BD9E76C9
3D863B69
3E323E18
3E9F6F4C
3EB0D951
3E22135E
3C01626B
3B754D1F
3E0A2F06
3ECB779F
3F063012
3F09AFD1
3EA7AA04
3E69003F
3E079075
3C516FCA
3CA222D5
BC8F301F
BE4E4192
BE00EA18
BE33C793
BEDC065B
BE7BA94C
BE3FBC5E
BDDA5C1C
BD078423
B955E8D5
BE140BBB
BE29ED7C
BDE7A073
BC34959E
3DC0BFE4
3D6E7F6F
BC09D6AE
BDD5CE18
BDDB6A1F
3E4B75EA
3EA820E6
3EB9E386
3E923E18
3E101EAC
BD5B3E14
BE2E00D2
BE4E6D9C
BE2F6BE3
BE51947D
BEBF8A4C
BE8B50F4
BE6B5632
BE96E58A
BE69A565
BE21CE29
BD8FD3B3
BE22CE46
BD5B9735
BE1B3C82
BE83A711
BE4DE7EA
BEBAAE08
BEE9E237
BEFC4242
BF159286
BF2ABC84
BED8B934
BE467514
3C2148BB
3DC4FFC9
BC8F3669
BD832DB2
BE668512
BEA531DB
BEACE725
BEA4DE5D
BEB69164
BF043A11
BF0ED107
BF02310E
BEB71B8B
BEC95486
BE2286F9
3C10B418
BDCBC6A8
BDB7CF5F
BE94026D
BECB6E50
BED75F70
BF128C37
BF3F5C5B
BF51059F
BF3A6959
BF35B121
BEE57FFA
BEC41A05
BEA02D9D
BE5EC02F
BE28472C
BE49A77E
BE0CE24C
BE91D81F
BEAEC205
BE823F68
BE7C953A
BEC93405
BEEA74E2
BF0123F6
BECE45A2
BECD3133
BE0D8A55
BDAE12E8
BE54562E
BEB357A3
BEE584B2
BF071822
BEE74ADC
BF312935
BF445EF6
BF127EC8
BF0337B9
BEC66C09
BE9C6951
BE957386
BEA122FB
BE99728A
BE380E8D
BE190BC8
BD9B7CFE
BDDB4E55
BDD4195D
BDA712E4
BCF4BE83
BDFE2AC3
BE4FB939
BE953027
BE544C7B
BE4FCA00
BD593F6C
BDB3E708
BE19E1F4
BE97685A
BE9FAA47
BF21EE46
BF16D762
BF161D75
BF01CF9A
BED7D7C3
BE95D1C4
BE606B38
BE888872
BE8B6977
BE8A64A1
BE6D4131
BDEAA194
BC155B46
3CC851A8
3E063F14
3DC57FB7
3DA9EB20
3E053198
3D224895
BDC97397
BE2B24EA
3D7DDB98
3C3380CB
BCD2EB5F
BC17353B
BC26B50B
BEAE0BD4
BEBF776C
BF3C1CB4
BED1A1FD
BE752E30
BE23A42F
BE1CE9A3
BE20110A
BE4F351A
BE5672B9
BE667770
BE8489D2
BE03419E
BDE9C454
BCA69596
3D3B56B8
3DF30835
3E28CEF6
3E3CAAB9
3E4062D4
BD673D5C
BDCB51BD
BDD86CA9
3D94BB5E
3B39CB68
BC4154CA
BA31FEEB
3B4E703B
BDC467BE
BE6EA9E7
BF24840E
BDD81E04
3BE5ABC1
BE10B8D0
BDF18E32
BE191D9B
BDC4E832
BDFC1F00
BE946973
BE928A1E
BE5CAB82
BE524463
BE4DEACD
BE596851
BDD559B4
BC16312F
BC78CA82
3C5E3758
BD53293D
BE0659D1
BE277186
3DFA3CA7
BDE0724B
3BFAA476
3CDADB83
BB8ECD8E
BD4D8EC9
BE17E564
BEBC58EF
BEB9ECB3
BE984B7F
BEE89FA5
BEF393CD
BF14F388
BEEC7193
BF15C454
BF2161E5
BF0B877B
BF0F7803
BF027610
BF399DBB
BF559924
BF39A155
BF5C63E0
BF290625
BEF7E62E
BE38F367
3AF5C28F
BDB7F413
BDEADA34
BDADDCE8
BC8869C6
BC15B35B
3CAA0CAE
BC916A8C
BDE07C42
BE88754F
BEC06B59
BF07E660
BF460169
BF5A8CEF
BF783148
BF5743B7
BF875979
BF6A99A6
BF81BFE8
BF7A15A9
BF23316E
BF858CF4
BF89BEE4
BF68537E
BF19768A
BF35844D
BF2706E6
BEDEA034
BE406530
BD8AB0C9
BDDAD081
3B9528F2
3CC1B973
3CF70585
BD08094E
BCFB80AA
BC8B06C4
BDACB641
BDF879C4
BE80E8EA
BE838A1A
BEACE337
BEC28F19
BECC6CB9
BECEAB7A
BEE38BAC
BEF76923
BF01DC0E
BEDFF60A
BEA0C176
BE8EFB8F
BEB6C15D
BE999B91
BE5503FB
BDFD5348
BE490EAA
BE0C5825
BCAE4F33
BCE0DED3
BC1C9D5A
3D098F60
