3D0B1359
3CB60D02
BC698DCE
3CFA4E7B
3C90385C
3CF49CF5
BC311C6D
3CE7DBB1
3A4E0B91
3C867F0B
3C968B5D
3C9BE4CD
BD94B168
3BF27350
3DCBE61D
3DA3F4ED
3CC99AE9
3CAB7564
BD07FAA0
BC7D9BA2
3CBC2118
3BAA4335
BC907315
BCA71BCE
3C6ECBFB
BC88F649
BC40DB27
3CD5DA27
B85E4C51
BC93D966
BCC87981
BC715A4B
BD14F15E
BD9D3459
BDFA8501
BE0AAE29
BDCCD185
BE5D883C
BE96F7C2
BEB722C0
BF0D3954
BEE19674
BEC06552
BE7FB225
BD127807
BE79DB66
BED19B4E
BEB83C08
BE94BE83
BE515EC0
BE0EE286
BD4F3FD9
3CA6B93D
BBD20297
BCC475E6
3CFA1A0D
3C701755
3C8D477C
BCE2C55D
BE11819D
BE031D71
BE49C1B5
BE27503C
BE66BE7B
BE664D7F
BE456712
BE8ABC73
BE8E0547
BE969510
BE82E297
BE97414A
BEA671EF
BEBE5300
BED87E9E
BEDE0371
BF1A4A27
BF26FCF0
BF17BABA
BEDBF6C2
BE90E001
BCCDBBE0
3C012BE5
BC41F42C
3CE5B856
BD0FBCA1
BC8AA002
BDEC3A86
BE3FDE2F
BE829E6F
BD685986
3CB927D4
3CF82D38
3E302603
3EB0C9DA
3E875FF6
3E7961C3
3E75A9A8
3E4355CE
3E034F40
3DC98351
3D032980
BE050332
BE568D76
BE1E0D67
BE565775
BE5A0169
BEF346FE
BEF08D2A
BE0D5F57
BCC7AE14
BD837718
BCB6F9FD
BB0398A6
BDAFEF7C
BE1C115E
BE426C3C
BE81ACBD
BD4C8DE3
3D4F6167
3DE9C6F3
3E593F29
3E9CB35F
3E8D70E7
3E866384
3E886FEF
3E8CDC23
3E54B6A6
3E2B28D8
3E057215
3DA5C9A3
BD42278D
BE7408D9
BE3C022A
BEB105E2
BF100ABF
BF422281
BEAC2D06
BD7ABFBA
BE3DA05A
BE14E2F3
BC1D4520
3CB70AC4
BDBE6927
BDCBD231
BDFDB014
BD413016
3D2C01E7
3E3D306A
3E85666B
3E8BEE80
3E846AE4
3EA2F640
3E9895D1
3E935E96
3E89A3B1
3EA64CB6
3EA5794A
3E6909F2
3DEF9B99
BDA7EE0B
BE2B762E
BE3EFE0D
BE6756C9
BF285F18
BF055E7D
BE3A17F4
BE829FBE
BE22AE8E
3CF76A2F
BDDD52C1
BDA5B531
BE020DDC
BDEA89FC
3CB150DB
3D8D6345
3E0BD2B7
3E06F47B
3E2AA151
3E30E7BC
3E31461B
3E71F688
3E730CED
3E576039
3E38E326
3E24D8FD
3DF40A28
3D9AE70C
3C1799E5
BD599568
BD8E26D5
BDC490A3
BF0F502B
BF391223
BF489A78
BEB83148
BE5447C3
BDABE404
BE73B603
3D275CD1
3CCCAF71
BCEA65CF
3C883340
3DA8D10F
3DEBCD79
3DF88B97
3DF807FF
3DD892EF
3E065237
3DD3EBC0
3DD3EBC0
3DCDFEFC
3C0AA433
BC845565
BD6BD6E9
BD90F27C
BD4C77DE
BD4AF2D8
3B21BE2B
3DA11F4F
BEA12EE8
BF77048A
BF5A1B4C
BE9E7D78
BEA0FABE
BDE08AF0
3CC67382
BB401605
BCA5DF22
3BF6C69B
3CE5C4EB
3DD61F5C
3E3362E9
3E2AEB81
3E45BD51
3E755E29
3E5EDFA4
3E1ABFBA
3E3D2B6F
3E232BDC
3CF27DCC
BC70739B
BD3A3CA7
BCDCA8E3
3B38E087
BBD6238E
3D0522EA
3D074A77
BE2EF241
BF95C526
BF5B0963
BE89F55A
BE88B503
BE08B695
BE861F7D
BE146BF0
BDF8EE28
BD745AE6
3DD7A13C
3DE3A7DB
3DE986FD
3CD9BE4D
3DC685DB
3DE4F11B
3D910774
BC3B3C82
3D36B5D4
3D333FC8
3D34B839
3D88FC0D
3D505293
3D365775
3C04449E
BD3C5693
3C815A08
BD47BAAA
BE1C197E
BF773301
BF4E32C2
BE7C8A37
BE69DDC2
BE27C3D7
BE88296B
BE4FD502
BEA4D3E1
BC16B335
3DFC560C
3D205037
BE3260B3
BE2780BB
BE4CD3E1
BE93EC68
BED8BB2C
BEFA070C
BEB55FFE
BE8B723F
BE23DE1E
BD684599
3DB67E41
3DE2491B
3D0C3D25
3B12AB69
BD4855DA
BD8388EC
BDA4E69F
BEA4C836
BECE2ED3
BE783E42
BE489BD8
BE389939
BEA44977
BF047C52
BEFA5E14
BD4712E4
BE2C35CE
BEE711F9
BF501D3B
BF487E6B
BF46CFA7
BF618EFC
BF6D1127
BF5F496B
BF531E4B
BF208E15
BE879B35
BD83B363
BCE57753
3D0095F2
3D94994A
BBDA4485
BDD24A6B
BE326CC2
BE7B06C4
BE29AFE2
3D94E7EF
BE72949A
BE54E7EF
BE0CC31A
BE7D4DC6
BEE44806
BED2D05F
BE886DB5
BF3D6DB1
BF9F499D
BFA7744F
BF91CA43
BF7A1533
BF65E13B
BF5E38FC
BF48BFB1
BF383B92
BF37126F
BEA63CDA
BE4CF6BE
BE696D09
BC2E1049
3DCCA1CF
BBB8BEF9
BDCCF5B2
BEC4EA07
BEF091C1
BD33D5BB
3E9F7293
3E54256C
BD1AAF79
BD8AC8E7
BDBBC7F7
BE48ECD9
BE9CD5B7
BF0D5E5B
BF92BEF0
BF956B12
BF6E6623
BF43DA62
BF072E49
BEE8DAC2
BEB0A915
BE93DAF9
BECA21EA
BEC7E0AC
BE9E410B
BE757AFF
BE54B407
BDAD8DBD
BC5B5D89
BD8F3CB4
BE922963
BEE82279
BED5F3B6
BC469F8C
3EA4B641
3E8C5D42
3E28090B
BD840E9D
BE065493
BE3A0126
BE03061C
BE4CA7D6
BF2E2B49
BF0DF299
BEB308FF
BE58AE32
BE1D03DA
BD5F31F4
3D166CF4
3D324D90
BDC723AB
BDA9F490
BE169B9D
BDC78FAC
BE1D82FD
BE30DF59
BE18E68E
BDD4A01B
BE94AB1D
BEBDA273
BEBA2164
BDDB03E2
3E9D421C
3ED18762
3DBF25E5
BDCEFAA4
BDE21F2A
BEA23F46
3D622F6A
3DBC0DB2
BD9EDFA4
BD25E460
BCEAB368
BCE22E5E
BB3BD380
3DD94B7B
3DE80C74
3C9142B3
3BA6EB92
3AC2A455
BC5EC5F4
3D24894C
BDD14FCE
BE268555
BE0BFD72
BE2CBCCF
BE4E5C4F
BE7AF89C
BE6694CD
3D3C5048
3EF6CA04
3EEAB170
3DE3A53C
BCB3B96B
BE0072D2
BEA01A15
3E48216C
3E959168
3E68294A
3E818E75
3E0D1E54
3DA62C34
3DEA8DA8
3DD2C0E8
3E0F65DC
3E7C332F
3E1E429E
3D8B4635
3D8BA387
3DF5B680
3D4E379B
BDCAA759
BDA2E233
BD622F6A
3D39E061
BB0EDE55
3D546801
3E910F95
3F06C700
3ECF6D76
3E18ED1C
3CAB302F
BE2C0A07
BEA2AA7E
3E870AC4
3EEAACDA
3ED1D68C
3ED78DD6
3E95A1CB
3E7901D2
3E2ECF64
3E2CD706
3E63608D
3E98357A
3E5CD0BB
3E434F40
3E9371B9
3E6BD6E9
3E37EE0B
3CD30F06
BDBF7729
BD45CFEE
3DDEF9DB
3DEDAB9F
3E59F72F
3F1246BF
3F31D40F
3EE0E758
3E40C5EB
BDB85836
BD827F1B
BEDB5B70
3E388B11
3EEBED74
3EED5F78
3EEA4DD3
3EC5AA50
3E813A93
3E684EC6
3E88FBA9
3E733C1D
3E9DA46A
3E9CB924
3E9FFD61
3EAE24BC
3E984253
3E415443
3D5F04DE
BCFE32A0
BB39884C
3DCDEC1C
3E860CE1
3EF8F020
3F3F85B6
3F437E2C
3E54959E
3E1CCC47
BDBBA01F
BDA0D802
BEE945B7
BD5DBFCF
3E9A7E52
3EB340D5
3EBEF86A
3EBA0429
3EA88D6D
3E9DA72A
3EA1C194
3E96F3D4
3E863BEF
3E7DB403
3E3414A5
3E28BDEC
3E07A701
3D3ADF2F
BC9DDA06
BB612E84
3D6379B7
3E1921CD
3EABBE88
3EEA5F85
3F254DF9
3F0BF951
3E7E5797
3D05974E
BCA2F48C
BE2533F4
BEB429BF
3A83FD50
3E30B567
3E865E46
3E9C47C3
3EA91750
3E954153
3EA214CF
3E832A8D
3E851BF8
3DC89225
BD05564B
BCCD8BA4
BD0BEE80
BD753719
BD70C671
3DD070FC
3E32FB1A
3DFC7BCC
3E3AAD60
3EB17A89
3F1CDA5E
3F12D7D8
3EF1717E
3DF8FA37
BDB67664
BDD1F1D0
BDBE132B
BD85E13B
3D165D3A
3DB0C027
3DBC32EC
3E0CBA30
3E33211D
3E252AC7
3E3E4C94
3E2D4413
3DCBCA53
BCBC2DAE
BDE5974E
BE428BF4
BE54330D
BD637DE9
3D9D9125
3E1D4739
3E956F33
3E59BCFD
3E6F60E1
3EDA75CD
3F1FE5A8
3EF6A61A
3EB54C77
3DC08073
BD37A5F4
BD95896A
BE468CEF
BDDF6A0E
3D0FC82A
3E07F2C3
BC1D9D34
3D68DFBD
3D2CAEEA
3C68038A
BC039043
BB7893FB
3D19EF95
BD5118C2
BE28ADEF
BE827FC3
BE7E410B
BD937A81
3D988A05
3E7B1705
3E8070DA
3EAF316E
3EAF1C32
3ED11C6D
3EE0A97A
3EAEA63B
3E45BF6A
BDDA6938
BDB3226C
BCA4D8FD
BCF0B06C
BE21C609
BDF5B036
BA893B7E
BDD015C2
BD95C39C
BDB65343
BE6E468D
BEA4CD75
BE99932D
BE772820
BE8FF6D3
BEA9BC99
BEACAC2A
BE9BD35F
BDE8F53C
BD20157F
3E5D4174
3E9B397E
3EA5C3DF
3EB0EB46
3E6ADFF8
3E80E9F7
3E732592
3E128D86
BD4D4AA1
3C9172EF
3CDBB385
3C809918
BE17ED42
BEC73FFB
BECDFA66
BE92B40F
BEB2B042
BEAB039F
BE883BA3
BEBB5B70
BEC97050
BEA0C7C1
BE5A6CA0
BE687D2C
BE5D7D39
BE77E1FC
BE61A36E
BE38954A
BCE29739
BCB1B585
3D893D96
3DE6DCE4
3D51EEAA
3DCCAFF7
3E5A94FF
3E3AB4FA
3D9ACC4F
BCDB6E50
BCED0918
BCE3E8DE
BDAF4A56
BE7D9019
BEC55AC0
BF16B52D
BF4567DC
BF8A1DFC
BF9C45C3
BFA6750C
BFB93804
BFBB46CC
BFB8A800
BF9C6256
BF76F933
BF88FD87
BF494CA9
BF5A8CCE
BF5B508F
BF47497B
BEA99F3C
BEFEB3BC
BEFF32DF
BEAFC526
BE5F0846
3DC82F94
3DA610F1
3CD5714C
BC075D57
BD1183B6
3CCD1E97
BD86F2E9
BE9EDD27
BEA77985
BF10DDC6
BF417907
BF709AAA
BF85846F
BFA50857
BF937CFE
BFC8EBC4
BFD02414
BFB66BB5
BFAF76BC
BF52CEEE
BF2FD838
BF31D1D4
BF39C172
BF06AF04
BEDCC921
BE847086
BE91A049
BD69C66D
BDBF4E44
BD07D0AF
BCBE8DDA
3CAC7FBB
3B6C52A4
BCA2834D
BCA53544
BD94FA48
BDFD5A9F
BE4D0AEE
BE8B519C
BE5E74F3
BEC26D05
BF19F3C7
BF39A9FC
BF46C0D7
BF3ABB02
BF332B02
BF32E9AB
BF465083
BF0E3BCD
BED096FF
BEA800C9
BE5B5419
BE745E4E
BE284F09
BD24BFD3
3C98B2EA
BCE29952
3BC6AC21
BB782F51
