3CDFCE31
3D06130A
3B40053E
3C92FF4C
3D003687
BCEB4635
3BB5DCC6
3CB1FAB9
3D053B08
3C3E5D9E
BCFA3B9B
BD06BDF5
3CAEF2C7
3D5D28D0
BDAADABA
BD8E2F38
3D0476F3
BCA849CB
BCAA12F9
3D0094E6
3CFCBF6E
BC2D2DCB
BC3F76A3
3CFA072D
3CCFD6D8
BC60157F
3D08EDE5
BC7505D1
3D0D8BA4
3C114F48
3CD5EF20
3CCDD2F2
3D85C811
3DD858BC
3D13176A
3DC1F4B2
3E29320E
3E2819D2
3DFDEF85
3E42C27A
3E5E6FF8
3E17C06E
3DB285A9
BC9DDE37
BD968AD7
3CFE8251
3E07BBF9
3E3C2EBA
3E0C3FC4
3E02089E
3E106B7B
3CFA4830
BCC10731
3D0FECDD
3A30AF60
BCA4EDF6
BC8BFE3B
3C854478
3CC7E49B
3B1C0A8D
3DD27BB3
3DE7BB30
3D336DEC
3DE74E23
3E24B6A6
3E9F0B6B
3EA2C3A8
3E9A0147
3EDB1983
3EFCC74C
3EDD9381
3EBFE005
3EE96DF4
3EF7F92F
3F030D74
3F21DD5D
3EF847F5
3ECE9531
3E9186FD
3E7BAE8A
3E245C79
3E070DA6
BCFC3937
3D07BBB6
3CAD3A60
3C247A9E
BD16BEBE
3DF399F6
3DF86339
3D44816F
3D9634DB
3E2E5B42
3E5A6E33
3E571EB0
3DE415F4
3E17B2CC
3E2E4B02
3DF18EB9
3E1FA094
3E757CD4
3EB4E725
3ED936E7
3F01B728
3F0AF3E4
3F14E66D
3F09CB79
3F033FA7
3ED75537
3EC85964
3E49B90F
3DBB0FF1
3C4B3A26
3C9053A0
BDC1016D
BDC68662
BE0CC250
BDF24D90
3C92A51E
BC48B439
3DF481B2
3D1AFAF8
3CDB7CFE
BD2FBE34
BDE9C993
BE6842B7
BE51E1D2
BDCEDAA9
3BBAD7D8
3DF5D1C4
3E877B39
3EC879E6
3EEDA33C
3EF23704
3F0061D8
3F0CBFE4
3EDB1D2E
3E94560C
3DE32A06
BE2C6B8B
3D4A42AF
3CE18EFC
3CDF84CB
3D992C06
BE8DE02F
BEB1AC79
BE553F7D
BE280BAA
BDE4BEC6
BD2CCA2E
BDF3EA2D
BE3A0C6B
BE81F55A
BEA64606
BE8701FC
BE6A08C0
BE6AEB81
BDD27A20
3D2F37FC
3E1F7CEE
3E8D156A
3EC59514
3E86221D
3E742C3D
3E3B9C30
3DB56B87
BDA2D2FE
BE623D92
3D448ADF
3D02D8C3
BD70318C
3C733440
BE867D13
BEEAAA19
BE8065F9
BE20F7FD
BDC44E94
BDBB6673
BE47EE4E
BE2E0DAA
BE84D1E9
BE6F1801
BE97A26A
BEB1DFFC
BE92C81D
BE8367E4
BE6D612C
BE4F1E4B
BD47F887
BCDF4C2B
BD4B9ECF
BDA8754F
BE536B90
BEA65061
BEA598E1
BED3BE01
BE5788DB
BD940571
BDF0F302
BE9122B8
BEC514A1
BF0DB37D
BE813CAC
BE215875
BB460CBF
BD264F55
BE0ED45F
BE397460
BE423422
BE83E48A
BEAE4B88
BE93228E
BEAF7FD0
BEDAC83F
BED4D8FD
BF015B36
BF0E0D99
BF0E6A12
BF29C62A
BF0D2029
BF26E137
BF12514C
BF499C5A
BE9CBAF9
BE6B4A66
BDC8F084
BDF99CBF
BEF4D595
BEE9B329
BF24DFF0
BE62C3CA
BE22C7FC
BD57891E
BCE601BD
BDBD744F
BDEF20EA
BE1FF002
BE48C08B
BE5F9AD0
BE7FFDE7
BEC906AB
BEF3C7D6
BF207BCC
BF59DBDB
BF685500
BF60CE70
BF4869F9
BF5FF2F5
BF8E0392
BF708C72
BF306738
BED8B913
BE5C953A
BE043DCD
BE63382E
BF093405
BEDD9FB2
BF0E698C
BE01C0CA
BC1B8024
3B12BC30
3CB9F128
BDB9CA5C
BE05DD90
BD855326
BDA2F72B
BE183409
BE2CAD9B
BEC0DDA5
BF0583F9
BF397236
BF536A2F
BF2B5C5B
BEEF9874
BECC89B1
BEF61E2E
BF094FDF
BF266BC6
BF240368
BF1ED40B
BE2326E1
BE013554
BE8A9A5F
BF0C7582
BF05D8E8
BF068E71
BD67E847
3C6BFA8F
3DB0068E
3D85AA2E
BD9CCC8A
BBB1BBCF
BC24DF48
3D1A719B
3D8AD363
BD9950B9
BEE2CC71
BF1A3F8A
BF1DF645
BF0B953E
BEE89D28
BE8898D4
BE45E786
BDD4F590
BDC6EB0B
BE6AC7DA
BEAD5C10
BF01208E
BE0B27CC
BE008FEB
BE90B220
BEF82DE0
BED4E960
BEC164A6
BC6E392E
3D476E1E
3D969D30
3D4FA69C
3CB16C1E
3D417EBB
3DD8FB44
3E3CA687
3E8123A3
BD8AF46B
BECAF7F5
BEADAB3B
BEAE234B
BE9BC9AC
BE862D62
BDA8FC0D
3E0FDBD3
3E31669D
3E5D30AD
3E412F4D
BC1DF97B
BEE6D549
BCD03FB3
BDADE7EA
BE4437C5
BEB04381
BEBB7671
BED0C62E
3CAD5172
3E1E58E6
3DD5C4A8
3DB85B5B
3E062BF1
3DE6B053
3E981190
3EAE7FB2
3E5CD962
BE2CE67D
BE601E69
BD832D2C
BD72A173
BDFB5632
BD613E3E
3D060CBF
3E87FF15
3EA12967
3EC466F5
3EB9817C
3E1D3CFF
BEB44E51
BD889657
BDCDAE3E
BE22E664
BE6D57BC
BE9591AC
BED12A52
BCE1522A
3E1C3CE2
3D599CBF
3DC92685
3E39CE4A
3E8B7D20
3EBD5022
3E9D0B0F
3CA7C393
BDEDE54B
3CAAA9F8
3D8857F3
BC858BC6
BDDE75BC
BCBDCAD1
3D67A52B
3E937026
3EBA745C
3F09BEC2
3EDE861F
3E232442
BE80BF7F
BE298B2F
BD6553AC
BD9F865D
BE3DDACF
BF17F1B7
BF2F00CE
BD4E1501
3DCF1DC5
3DAB7F5A
3E13AFB8
3E924BDC
3EA29F38
3EC15BBC
3E655044
BD981A58
3C3890D6
3DF21C47
3E401648
BCE84CF0
BDE1A36E
BD3A5B10
3DE98AA8
3E7CB967
3E9E4F76
3EE5F3B6
3EABAC4F
3DD7B635
BEA94D94
BE1719B5
BDACA601
BC8D690A
BE45FAEC
BEBD306A
BF5383E0
BE05E460
3D0013EC
3DAF6380
3DE9AFE2
3E845693
3E9757D6
3E8FDBD3
3DB32E7B
BDA9EECC
3D916EBD
3DDC0981
BB9D7BA6
BDC28028
BDE460EE
BBE2E2B9
3E0F6E83
3E5DD50B
3E77DC38
3E49A0AE
3E15796C
3A869C67
BEB664B2
BE5BB40B
BD743526
BDCA1B5C
BDFE7EA6
BEC8A351
BF38E1C6
BE79A9DA
BDE73ABD
BB1D7BA6
3DB4D50F
3E83FC22
3E9EF73C
3E8BA12B
BD0A7504
BDE2C6EF
3CD27A20
3C10752E
BE3E963E
BE5E147B
BD4E0221
3DA3A10A
3E21A7A0
3DF544BB
3D56CC60
3DDDECE5
BC20620B
BE522681
BF185D64
BE360675
3CD2BD3C
BD8290EF
BE4A393F
BEE5C37A
BF26F3A1
BE89FFF8
BE18CE70
39BB2BBB
3E3DB057
3E8D9D34
3EDDEB96
3EBDC2F4
3DDA109D
BCDF41AF
3CDBE7F3
BDFB05FB
BE502752
BDCC59FB
3E1380CB
3E0E2A3D
3DC7EE0B
3D4A0C28
3CDC7CD9
BCBB70EF
BE85EA68
BE9F3A15
BF2506AB
BE9EA8FC
BD8FDC16
BD242396
BE9969E4
BF03B2DD
BF084F6E
BEE61694
BE8AC2DF
BD78B370
3E6F04DE
3EAD727A
3EF9337F
3F08DB05
3ED1BBAE
3DF8D9B6
3D5070FC
3C91B60B
3DC878FB
3E3974A3
3E782C6F
3E2CC3E3
3D8C857F
3D84DE3C
BA595140
BE081A9C
BED16FEB
BE9DA7D2
BE680347
BE86A316
BD83FAB1
BDF712A1
BEC5E2AC
BEEE4606
BEC9EDC0
BEF0F840
BEC4BDBA
BE0573EB
3DABD231
3E9D336E
3F00A72F
3F0EFC69
3EE78C43
3E71FFB5
3E11A1DC
3E53CAB8
3E890B20
3E5BF099
3E3D1EDA
3DEC2507
3DB49F0E
BCB3D295
BD9F4129
BE9066C3
BF11F7A5
BF1BD4D0
BECC91D1
BE27CAEA
3CE7D34E
BDA4B018
BEAD3DC9
BF088323
BECB1811
BEC52DED
BF043915
BEB00D3D
BDE4D22D
3E233CE6
3EB5FB72
3EF88701
3EF2749F
3EC31099
3EB26762
3EBA0E63
3E92B53D
3E5543AF
3E05B7D0
3D6BFB9C
3D17EAA3
BDD0AD47
BEBD86CB
BF066F72
BF13F551
BF0B6838
BE805DFB
BD685554
BD80535D
BD96E0D2
BEBC78C8
BF213B08
BF3B3ECD
BF0EEB70
BEF7E60C
BEC95A6C
BE8D6A38
BDB78AB1
3E01FEEB
3E9C00B9
3ED905E2
3EDE7903
3ED87E9E
3EA31056
3E8464DC
3E5A8049
3D74CC25
3B4AB3EE
BE3ECBFB
BEC7CAC9
BF07C350
BF15338F
BED11E21
BEA61AC5
BE1282C7
BD84FA05
BD359685
BE032F01
BE90FE8B
BEEF255F
BF347421
BF663E3A
BF4C373F
BF22AB8A
BEED9147
BECB1AF4
BEA40208
BE629132
BE075F2D
BD8D37C1
BDAFDC9C
BD17396D
BCA0C283
BDDAB64A
BDE317AD
BE1D249E
BEA241C4
BEFA2963
BF061987
BF069F8C
BEF569D3
BE8A71BD
BCBC6A7F
BD325700
3B816F00
3B320FB2
BE3F72F7
BEC1EC92
BEFDA017
BF1FD46B
BF7C3633
BF86CF9E
BF6B2F01
BF31C1D7
BF39D0A6
BF3EFBA0
BF35CB47
BF0B76E6
BEE95183
BED7C19C
BEED9210
BF0BAE25
BECB0FAE
BEB2D517
BEC1C433
BF0B7165
BEEE0179
BEC9B2A2
BE90D23D
BE239D5E
BD126741
3C2FC47E
BC871C54
3B83C298
BE268944
BE9EC8F7
BEED0CC3
BF340C41
BF6A7A63
BF467393
BF5E3487
BF8014E0
BF824580
BF85E365
BF86B713
BF913AD6
BF6D4F05
BF8462D4
BF671E9F
BF8C7568
BF86321A
BF66133C
BF37B6BB
BEF6234B
BE80C671
BE9D7BEA
BE275B3E
BCD7BA67
BDB8F8A5
BB657109
BBAAD1D0
BC96BB99
BD4F6F09
BDA83904
BE80A4A0
BEBC1D08
BF106E3B
BF4A1544
BF4B007A
BF796EDF
BF84D520
BF88E2C1
BF750753
BF86FEA4
BF8BEA1C
BF853EE6
BF87FB05
BF72E7E6
BF5C2492
BF0F076C
BEC49753
BE8F0846
BE72788E
BE46249A
BE149C6F
BDB117B5
BDBD1EDA
BCF42353
BC9E4713
3C0EB463
3AC0AD04
BD28AD69
BE3AD96A
BEA37415
BEF11234
BF2CBA62
BF27DA51
BF498CA0
BF5919DF
BF75FA33
BF80A5A4
BF89B2C4
BF71DB55
BF7EB735
BF6B5621
BF5D6A05
BF4429AE
BF054ED3
BEEF1002
BEC836CA
BEBDE99F
BE7B7282
BDC857F3
BD8BDA0E
BC7D2631
BD11E860
BD075925
BC101D19
3CA72863
BC454BCF
BD8A5B53
BE0A2728
BE29E27A
BE80EDC4
BE3A9E6F
BEAF33EC
BF0B17AD
BF29A661
BF1C6D1E
BF0C022A
BF0664A1
BF054CFD
BF1FD827
BEC3E532
BE96D7A5
BE968A2F
BE766128
BDD4EF46
BE155C96
BDCDB270
BCB37EB3
B8F98FA3
BBDE5D18
BADBCEC8
